node {
  name: "input_1"
  op: "Placeholder"
  attr {
    key: "dtype"
    value {
      type: DT_FLOAT
    }
  }
  attr {
    key: "shape"
    value {
      shape {
        dim {
          size: -1
        }
        dim {
          size: 45
        }
        dim {
          size: 12
        }
      }
    }
  }
}
node {
  name: "input_5"
  op: "Placeholder"
  attr {
    key: "dtype"
    value {
      type: DT_FLOAT
    }
  }
  attr {
    key: "shape"
    value {
      shape {
        dim {
          size: -1
        }
      }
    }
  }
}
node {
  name: "input_4"
  op: "Placeholder"
  attr {
    key: "dtype"
    value {
      type: DT_FLOAT
    }
  }
  attr {
    key: "shape"
    value {
      shape {
        dim {
          size: -1
        }
        dim {
          size: 45
        }
        dim {
          size: 1
        }
      }
    }
  }
}
node {
  name: "input_3"
  op: "Placeholder"
  attr {
    key: "dtype"
    value {
      type: DT_FLOAT
    }
  }
  attr {
    key: "shape"
    value {
      shape {
        dim {
          size: -1
        }
        dim {
          size: 45
        }
        dim {
          size: 40
        }
        dim {
          size: 4
        }
      }
    }
  }
}
node {
  name: "input_2"
  op: "Placeholder"
  attr {
    key: "dtype"
    value {
      type: DT_FLOAT
    }
  }
  attr {
    key: "shape"
    value {
      shape {
        dim {
          size: -1
        }
        dim {
          size: 18
        }
      }
    }
  }
}
node {
  name: "deep_cluster_gn/SA_clclass/SA_lnorm2_SA_clclass/Reshape/shape/0"
  op: "Const"
  attr {
    key: "dtype"
    value {
      type: DT_INT32
    }
  }
  attr {
    key: "value"
    value {
      tensor {
        dtype: DT_INT32
        tensor_shape {
        }
        int_val: 1
      }
    }
  }
}
node {
  name: "deep_cluster_gn/SA_clclass/SA_lnorm2_SA_clclass/mul/x"
  op: "Const"
  attr {
    key: "dtype"
    value {
      type: DT_INT32
    }
  }
  attr {
    key: "value"
    value {
      tensor {
        dtype: DT_INT32
        tensor_shape {
        }
        int_val: 1
      }
    }
  }
}
node {
  name: "deep_cluster_gn/SA_clclass/SA_lnorm1_SA_clclass/Reshape/shape/0"
  op: "Const"
  attr {
    key: "dtype"
    value {
      type: DT_INT32
    }
  }
  attr {
    key: "value"
    value {
      tensor {
        dtype: DT_INT32
        tensor_shape {
        }
        int_val: 1
      }
    }
  }
}
node {
  name: "deep_cluster_gn/SA_clclass/SA_lnorm1_SA_clclass/mul/x"
  op: "Const"
  attr {
    key: "dtype"
    value {
      type: DT_INT32
    }
  }
  attr {
    key: "value"
    value {
      tensor {
        dtype: DT_INT32
        tensor_shape {
        }
        int_val: 1
      }
    }
  }
}
node {
  name: "deep_cluster_gn/gcn_output_layernorm/Reshape/shape/0"
  op: "Const"
  attr {
    key: "dtype"
    value {
      type: DT_INT32
    }
  }
  attr {
    key: "value"
    value {
      tensor {
        dtype: DT_INT32
        tensor_shape {
        }
        int_val: 1
      }
    }
  }
}
node {
  name: "deep_cluster_gn/gcn_output_layernorm/mul/x"
  op: "Const"
  attr {
    key: "dtype"
    value {
      type: DT_INT32
    }
  }
  attr {
    key: "value"
    value {
      tensor {
        dtype: DT_INT32
        tensor_shape {
        }
        int_val: 1
      }
    }
  }
}
node {
  name: "deep_cluster_gn/graph_builder/norm_nodes_feats/Reshape/shape/0"
  op: "Const"
  attr {
    key: "dtype"
    value {
      type: DT_INT32
    }
  }
  attr {
    key: "value"
    value {
      tensor {
        dtype: DT_INT32
        tensor_shape {
        }
        int_val: 1
      }
    }
  }
}
node {
  name: "deep_cluster_gn/graph_builder/norm_nodes_feats/mul/x"
  op: "Const"
  attr {
    key: "dtype"
    value {
      type: DT_INT32
    }
  }
  attr {
    key: "value"
    value {
      tensor {
        dtype: DT_INT32
        tensor_shape {
        }
        int_val: 1
      }
    }
  }
}
node {
  name: "deep_cluster_gn/concat/axis"
  op: "Const"
  attr {
    key: "dtype"
    value {
      type: DT_INT32
    }
  }
  attr {
    key: "value"
    value {
      tensor {
        dtype: DT_INT32
        tensor_shape {
        }
        int_val: -1
      }
    }
  }
}
node {
  name: "deep_cluster_gn/concat"
  op: "ConcatV2"
  input: "input_4"
  input: "input_1"
  input: "deep_cluster_gn/concat/axis"
  attr {
    key: "N"
    value {
      i: 2
    }
  }
  attr {
    key: "T"
    value {
      type: DT_FLOAT
    }
  }
  attr {
    key: "Tidx"
    value {
      type: DT_INT32
    }
  }
}
node {
  name: "deep_cluster_gn/graph_builder/rechit_gcn/out_norm_rechits/Reshape/shape/0"
  op: "Const"
  attr {
    key: "dtype"
    value {
      type: DT_INT32
    }
  }
  attr {
    key: "value"
    value {
      tensor {
        dtype: DT_INT32
        tensor_shape {
        }
        int_val: 1
      }
    }
  }
}
node {
  name: "deep_cluster_gn/graph_builder/rechit_gcn/out_norm_rechits/mul/x"
  op: "Const"
  attr {
    key: "dtype"
    value {
      type: DT_INT32
    }
  }
  attr {
    key: "value"
    value {
      tensor {
        dtype: DT_INT32
        tensor_shape {
        }
        int_val: 1
      }
    }
  }
}
node {
  name: "deep_cluster_gn/graph_builder/rechit_gcn/sa_norm_rechits/Reshape/shape/0"
  op: "Const"
  attr {
    key: "dtype"
    value {
      type: DT_INT32
    }
  }
  attr {
    key: "value"
    value {
      tensor {
        dtype: DT_INT32
        tensor_shape {
        }
        int_val: 1
      }
    }
  }
}
node {
  name: "deep_cluster_gn/graph_builder/rechit_gcn/sa_norm_rechits/mul/x"
  op: "Const"
  attr {
    key: "dtype"
    value {
      type: DT_INT32
    }
  }
  attr {
    key: "value"
    value {
      tensor {
        dtype: DT_INT32
        tensor_shape {
        }
        int_val: 1
      }
    }
  }
}
node {
  name: "deep_cluster_gn/graph_builder/rechit_gcn/GHC_rechits/MatMul_2/ReadVariableOp/resource"
  op: "Const"
  attr {
    key: "dtype"
    value {
      type: DT_FLOAT
    }
  }
  attr {
    key: "value"
    value {
      tensor {
        dtype: DT_FLOAT
        tensor_shape {
          dim {
            size: 4
          }
          dim {
            size: 25
          }
        }
        tensor_content: "\252\276\310;^\350\020:\023\345P<\302\342\267\273\020\316T\276\354Q]\271l\223\336:CR\346\276\356\\\203<Q\345A\275\277\255\222\274\222\315\256=\303e\254;/\371\245\276wF&\275\254\271\335>=\241\264<e\276X\275\325z^\272.T\206\276U]m\272E2\021:mOt=\254Z\347\271*\331$;\373Al?\223R\007:{\274&<\350\376\226=\357\203\257<\343\026\022\273{\030\235=\010-\244<c\220{<vL\347>\311\352\204?q{\241>OWq\273A(-\2739#\247?H(\253\276K\222.=d\317\"\272.Y\004=\275lX\276\256IN<$\207\315>\333\303\231:\230\n\261\274c_E<\274\242\004\277a\366q\275\207\326\034\276rW\325> Q\013\277i\203\274<\270\330f>\260\363\323\276}=C\273\254\347\256\275\302\203k=\241[R\276{\352>\275\256,\231>\341{B\276R\303\362=E]\264\275\345\203\207\276\025\352\262\274\355#\020\276K\000\013\276O\361M<NE\313?*P\252\275-MQ=\362$\t?U\316\221\300\357\347V?\223q\004\276\335\365\362?\005\233\330=\326\213\006>\274Z\220=\313v\000?\321/\311=\255\274\230=\314\236\306>\362R\324>Lp\266=\304q\273>\370\n\033>\335\315\353\276\004\014\025@\205Z\037?\264-f=\037J\257\275\300\266\223=\311\313\353?\346uB=_\3764<"
      }
    }
  }
}
node {
  name: "deep_cluster_gn/graph_builder/rechit_gcn/GHC_rechits/MatMul_2/ReadVariableOp"
  op: "Identity"
  input: "deep_cluster_gn/graph_builder/rechit_gcn/GHC_rechits/MatMul_2/ReadVariableOp/resource"
  attr {
    key: "T"
    value {
      type: DT_FLOAT
    }
  }
}
node {
  name: "deep_cluster_gn/graph_builder/rechit_gcn/GHC_rechits/MatMul_2"
  op: "BatchMatMulV2"
  input: "input_3"
  input: "deep_cluster_gn/graph_builder/rechit_gcn/GHC_rechits/MatMul_2/ReadVariableOp"
  attr {
    key: "T"
    value {
      type: DT_FLOAT
    }
  }
  attr {
    key: "adj_x"
    value {
      b: false
    }
  }
  attr {
    key: "adj_y"
    value {
      b: false
    }
  }
}
node {
  name: "deep_cluster_gn/graph_builder/rechit_gcn/GHC_rechits/add_1/ReadVariableOp/resource"
  op: "Const"
  attr {
    key: "dtype"
    value {
      type: DT_FLOAT
    }
  }
  attr {
    key: "value"
    value {
      tensor {
        dtype: DT_FLOAT
        tensor_shape {
          dim {
            size: 25
          }
        }
        tensor_content: "\345\250\312\275\306\036\273?\246b\211\277\r\320*@\216\266\340\276\344\244\205\277\010\257\036\277IX\306?\214\312G\277o\301H?\353\336@?\255\313\270=\302\244\266\277E\237_\300&kQ?d4\"?\007\341\023@\350@\326?\315\036\242\276\370o\'\276\356\320\264?Q\206\020\2776\235\367?\332\320\204>0]\236\277"
      }
    }
  }
}
node {
  name: "deep_cluster_gn/graph_builder/rechit_gcn/GHC_rechits/add_1/ReadVariableOp"
  op: "Identity"
  input: "deep_cluster_gn/graph_builder/rechit_gcn/GHC_rechits/add_1/ReadVariableOp/resource"
  attr {
    key: "T"
    value {
      type: DT_FLOAT
    }
  }
}
node {
  name: "deep_cluster_gn/graph_builder/rechit_gcn/GHC_rechits/add_1"
  op: "AddV2"
  input: "deep_cluster_gn/graph_builder/rechit_gcn/GHC_rechits/MatMul_2"
  input: "deep_cluster_gn/graph_builder/rechit_gcn/GHC_rechits/add_1/ReadVariableOp"
  attr {
    key: "T"
    value {
      type: DT_FLOAT
    }
  }
}
node {
  name: "deep_cluster_gn/graph_builder/rechit_gcn/GHC_rechits/Sigmoid"
  op: "Sigmoid"
  input: "deep_cluster_gn/graph_builder/rechit_gcn/GHC_rechits/add_1"
  attr {
    key: "T"
    value {
      type: DT_FLOAT
    }
  }
}
node {
  name: "deep_cluster_gn/graph_builder/rechit_gcn/distance/mul_1/x"
  op: "Const"
  attr {
    key: "dtype"
    value {
      type: DT_FLOAT
    }
  }
  attr {
    key: "value"
    value {
      tensor {
        dtype: DT_FLOAT
        tensor_shape {
        }
        float_val: -1.0
      }
    }
  }
}
node {
  name: "deep_cluster_gn/graph_builder/rechit_gcn/strided_slice/stack"
  op: "Const"
  attr {
    key: "dtype"
    value {
      type: DT_INT32
    }
  }
  attr {
    key: "value"
    value {
      tensor {
        dtype: DT_INT32
        tensor_shape {
          dim {
            size: 4
          }
        }
        tensor_content: "\000\000\000\000\000\000\000\000\000\000\000\000\000\000\000\000"
      }
    }
  }
}
node {
  name: "deep_cluster_gn/graph_builder/rechit_gcn/strided_slice/stack_1"
  op: "Const"
  attr {
    key: "dtype"
    value {
      type: DT_INT32
    }
  }
  attr {
    key: "value"
    value {
      tensor {
        dtype: DT_INT32
        tensor_shape {
          dim {
            size: 4
          }
        }
        tensor_content: "\000\000\000\000\000\000\000\000\000\000\000\000\002\000\000\000"
      }
    }
  }
}
node {
  name: "deep_cluster_gn/graph_builder/rechit_gcn/strided_slice/stack_2"
  op: "Const"
  attr {
    key: "dtype"
    value {
      type: DT_INT32
    }
  }
  attr {
    key: "value"
    value {
      tensor {
        dtype: DT_INT32
        tensor_shape {
          dim {
            size: 4
          }
        }
        tensor_content: "\001\000\000\000\001\000\000\000\001\000\000\000\001\000\000\000"
      }
    }
  }
}
node {
  name: "deep_cluster_gn/graph_builder/rechit_gcn/strided_slice"
  op: "StridedSlice"
  input: "input_3"
  input: "deep_cluster_gn/graph_builder/rechit_gcn/strided_slice/stack"
  input: "deep_cluster_gn/graph_builder/rechit_gcn/strided_slice/stack_1"
  input: "deep_cluster_gn/graph_builder/rechit_gcn/strided_slice/stack_2"
  attr {
    key: "Index"
    value {
      type: DT_INT32
    }
  }
  attr {
    key: "T"
    value {
      type: DT_FLOAT
    }
  }
  attr {
    key: "begin_mask"
    value {
      i: 7
    }
  }
  attr {
    key: "ellipsis_mask"
    value {
      i: 0
    }
  }
  attr {
    key: "end_mask"
    value {
      i: 7
    }
  }
  attr {
    key: "new_axis_mask"
    value {
      i: 0
    }
  }
  attr {
    key: "shrink_axis_mask"
    value {
      i: 0
    }
  }
}
node {
  name: "deep_cluster_gn/graph_builder/rechit_gcn/distance/Square"
  op: "Square"
  input: "deep_cluster_gn/graph_builder/rechit_gcn/strided_slice"
  attr {
    key: "T"
    value {
      type: DT_FLOAT
    }
  }
}
node {
  name: "deep_cluster_gn/graph_builder/rechit_gcn/distance/Sum/reduction_indices"
  op: "Const"
  attr {
    key: "dtype"
    value {
      type: DT_INT32
    }
  }
  attr {
    key: "value"
    value {
      tensor {
        dtype: DT_INT32
        tensor_shape {
        }
        int_val: -1
      }
    }
  }
}
node {
  name: "deep_cluster_gn/graph_builder/rechit_gcn/distance/Sum"
  op: "Sum"
  input: "deep_cluster_gn/graph_builder/rechit_gcn/distance/Square"
  input: "deep_cluster_gn/graph_builder/rechit_gcn/distance/Sum/reduction_indices"
  attr {
    key: "T"
    value {
      type: DT_FLOAT
    }
  }
  attr {
    key: "Tidx"
    value {
      type: DT_INT32
    }
  }
  attr {
    key: "keep_dims"
    value {
      b: false
    }
  }
}
node {
  name: "deep_cluster_gn/graph_builder/rechit_gcn/distance/Shape"
  op: "Shape"
  input: "deep_cluster_gn/graph_builder/rechit_gcn/distance/Sum"
  attr {
    key: "T"
    value {
      type: DT_FLOAT
    }
  }
  attr {
    key: "out_type"
    value {
      type: DT_INT32
    }
  }
}
node {
  name: "deep_cluster_gn/graph_builder/rechit_gcn/distance/strided_slice/stack"
  op: "Const"
  attr {
    key: "dtype"
    value {
      type: DT_INT32
    }
  }
  attr {
    key: "value"
    value {
      tensor {
        dtype: DT_INT32
        tensor_shape {
          dim {
            size: 1
          }
        }
        int_val: 0
      }
    }
  }
}
node {
  name: "deep_cluster_gn/graph_builder/rechit_gcn/distance/strided_slice/stack_1"
  op: "Const"
  attr {
    key: "dtype"
    value {
      type: DT_INT32
    }
  }
  attr {
    key: "value"
    value {
      tensor {
        dtype: DT_INT32
        tensor_shape {
          dim {
            size: 1
          }
        }
        int_val: 1
      }
    }
  }
}
node {
  name: "deep_cluster_gn/graph_builder/rechit_gcn/distance/strided_slice/stack_2"
  op: "Const"
  attr {
    key: "dtype"
    value {
      type: DT_INT32
    }
  }
  attr {
    key: "value"
    value {
      tensor {
        dtype: DT_INT32
        tensor_shape {
          dim {
            size: 1
          }
        }
        int_val: 1
      }
    }
  }
}
node {
  name: "deep_cluster_gn/graph_builder/rechit_gcn/distance/strided_slice"
  op: "StridedSlice"
  input: "deep_cluster_gn/graph_builder/rechit_gcn/distance/Shape"
  input: "deep_cluster_gn/graph_builder/rechit_gcn/distance/strided_slice/stack"
  input: "deep_cluster_gn/graph_builder/rechit_gcn/distance/strided_slice/stack_1"
  input: "deep_cluster_gn/graph_builder/rechit_gcn/distance/strided_slice/stack_2"
  attr {
    key: "Index"
    value {
      type: DT_INT32
    }
  }
  attr {
    key: "T"
    value {
      type: DT_INT32
    }
  }
  attr {
    key: "begin_mask"
    value {
      i: 0
    }
  }
  attr {
    key: "ellipsis_mask"
    value {
      i: 0
    }
  }
  attr {
    key: "end_mask"
    value {
      i: 0
    }
  }
  attr {
    key: "new_axis_mask"
    value {
      i: 0
    }
  }
  attr {
    key: "shrink_axis_mask"
    value {
      i: 1
    }
  }
}
node {
  name: "deep_cluster_gn/graph_builder/rechit_gcn/distance/Shape_1"
  op: "Shape"
  input: "deep_cluster_gn/graph_builder/rechit_gcn/distance/Sum"
  attr {
    key: "T"
    value {
      type: DT_FLOAT
    }
  }
  attr {
    key: "out_type"
    value {
      type: DT_INT32
    }
  }
}
node {
  name: "deep_cluster_gn/graph_builder/rechit_gcn/distance/strided_slice_1/stack"
  op: "Const"
  attr {
    key: "dtype"
    value {
      type: DT_INT32
    }
  }
  attr {
    key: "value"
    value {
      tensor {
        dtype: DT_INT32
        tensor_shape {
          dim {
            size: 1
          }
        }
        int_val: 1
      }
    }
  }
}
node {
  name: "deep_cluster_gn/graph_builder/rechit_gcn/distance/strided_slice_1/stack_1"
  op: "Const"
  attr {
    key: "dtype"
    value {
      type: DT_INT32
    }
  }
  attr {
    key: "value"
    value {
      tensor {
        dtype: DT_INT32
        tensor_shape {
          dim {
            size: 1
          }
        }
        int_val: 2
      }
    }
  }
}
node {
  name: "deep_cluster_gn/graph_builder/rechit_gcn/distance/strided_slice_1/stack_2"
  op: "Const"
  attr {
    key: "dtype"
    value {
      type: DT_INT32
    }
  }
  attr {
    key: "value"
    value {
      tensor {
        dtype: DT_INT32
        tensor_shape {
          dim {
            size: 1
          }
        }
        int_val: 1
      }
    }
  }
}
node {
  name: "deep_cluster_gn/graph_builder/rechit_gcn/distance/strided_slice_1"
  op: "StridedSlice"
  input: "deep_cluster_gn/graph_builder/rechit_gcn/distance/Shape_1"
  input: "deep_cluster_gn/graph_builder/rechit_gcn/distance/strided_slice_1/stack"
  input: "deep_cluster_gn/graph_builder/rechit_gcn/distance/strided_slice_1/stack_1"
  input: "deep_cluster_gn/graph_builder/rechit_gcn/distance/strided_slice_1/stack_2"
  attr {
    key: "Index"
    value {
      type: DT_INT32
    }
  }
  attr {
    key: "T"
    value {
      type: DT_INT32
    }
  }
  attr {
    key: "begin_mask"
    value {
      i: 0
    }
  }
  attr {
    key: "ellipsis_mask"
    value {
      i: 0
    }
  }
  attr {
    key: "end_mask"
    value {
      i: 0
    }
  }
  attr {
    key: "new_axis_mask"
    value {
      i: 0
    }
  }
  attr {
    key: "shrink_axis_mask"
    value {
      i: 1
    }
  }
}
node {
  name: "deep_cluster_gn/graph_builder/rechit_gcn/distance/Reshape/shape/2"
  op: "Const"
  attr {
    key: "dtype"
    value {
      type: DT_INT32
    }
  }
  attr {
    key: "value"
    value {
      tensor {
        dtype: DT_INT32
        tensor_shape {
        }
        int_val: -1
      }
    }
  }
}
node {
  name: "deep_cluster_gn/graph_builder/rechit_gcn/distance/Reshape/shape/3"
  op: "Const"
  attr {
    key: "dtype"
    value {
      type: DT_INT32
    }
  }
  attr {
    key: "value"
    value {
      tensor {
        dtype: DT_INT32
        tensor_shape {
        }
        int_val: 1
      }
    }
  }
}
node {
  name: "deep_cluster_gn/graph_builder/rechit_gcn/distance/Reshape/shape"
  op: "Pack"
  input: "deep_cluster_gn/graph_builder/rechit_gcn/distance/strided_slice"
  input: "deep_cluster_gn/graph_builder/rechit_gcn/distance/strided_slice_1"
  input: "deep_cluster_gn/graph_builder/rechit_gcn/distance/Reshape/shape/2"
  input: "deep_cluster_gn/graph_builder/rechit_gcn/distance/Reshape/shape/3"
  attr {
    key: "N"
    value {
      i: 4
    }
  }
  attr {
    key: "T"
    value {
      type: DT_INT32
    }
  }
  attr {
    key: "axis"
    value {
      i: 0
    }
  }
}
node {
  name: "deep_cluster_gn/graph_builder/rechit_gcn/distance/Reshape"
  op: "Reshape"
  input: "deep_cluster_gn/graph_builder/rechit_gcn/distance/Sum"
  input: "deep_cluster_gn/graph_builder/rechit_gcn/distance/Reshape/shape"
  attr {
    key: "T"
    value {
      type: DT_FLOAT
    }
  }
  attr {
    key: "Tshape"
    value {
      type: DT_INT32
    }
  }
}
node {
  name: "deep_cluster_gn/graph_builder/rechit_gcn/distance/mul/x"
  op: "Const"
  attr {
    key: "dtype"
    value {
      type: DT_FLOAT
    }
  }
  attr {
    key: "value"
    value {
      tensor {
        dtype: DT_FLOAT
        tensor_shape {
        }
        float_val: 2.0
      }
    }
  }
}
node {
  name: "deep_cluster_gn/graph_builder/rechit_gcn/distance/MatMul"
  op: "BatchMatMulV2"
  input: "deep_cluster_gn/graph_builder/rechit_gcn/strided_slice"
  input: "deep_cluster_gn/graph_builder/rechit_gcn/strided_slice"
  attr {
    key: "T"
    value {
      type: DT_FLOAT
    }
  }
  attr {
    key: "adj_x"
    value {
      b: false
    }
  }
  attr {
    key: "adj_y"
    value {
      b: true
    }
  }
}
node {
  name: "deep_cluster_gn/graph_builder/rechit_gcn/distance/mul"
  op: "Mul"
  input: "deep_cluster_gn/graph_builder/rechit_gcn/distance/mul/x"
  input: "deep_cluster_gn/graph_builder/rechit_gcn/distance/MatMul"
  attr {
    key: "T"
    value {
      type: DT_FLOAT
    }
  }
}
node {
  name: "deep_cluster_gn/graph_builder/rechit_gcn/distance/sub"
  op: "Sub"
  input: "deep_cluster_gn/graph_builder/rechit_gcn/distance/Reshape"
  input: "deep_cluster_gn/graph_builder/rechit_gcn/distance/mul"
  attr {
    key: "T"
    value {
      type: DT_FLOAT
    }
  }
}
node {
  name: "deep_cluster_gn/graph_builder/rechit_gcn/distance/Square_1"
  op: "Square"
  input: "deep_cluster_gn/graph_builder/rechit_gcn/strided_slice"
  attr {
    key: "T"
    value {
      type: DT_FLOAT
    }
  }
}
node {
  name: "deep_cluster_gn/graph_builder/rechit_gcn/distance/Sum_1/reduction_indices"
  op: "Const"
  attr {
    key: "dtype"
    value {
      type: DT_INT32
    }
  }
  attr {
    key: "value"
    value {
      tensor {
        dtype: DT_INT32
        tensor_shape {
        }
        int_val: -1
      }
    }
  }
}
node {
  name: "deep_cluster_gn/graph_builder/rechit_gcn/distance/Sum_1"
  op: "Sum"
  input: "deep_cluster_gn/graph_builder/rechit_gcn/distance/Square_1"
  input: "deep_cluster_gn/graph_builder/rechit_gcn/distance/Sum_1/reduction_indices"
  attr {
    key: "T"
    value {
      type: DT_FLOAT
    }
  }
  attr {
    key: "Tidx"
    value {
      type: DT_INT32
    }
  }
  attr {
    key: "keep_dims"
    value {
      b: false
    }
  }
}
node {
  name: "deep_cluster_gn/graph_builder/rechit_gcn/distance/Shape_2"
  op: "Shape"
  input: "deep_cluster_gn/graph_builder/rechit_gcn/distance/Sum_1"
  attr {
    key: "T"
    value {
      type: DT_FLOAT
    }
  }
  attr {
    key: "out_type"
    value {
      type: DT_INT32
    }
  }
}
node {
  name: "deep_cluster_gn/graph_builder/rechit_gcn/distance/strided_slice_2/stack"
  op: "Const"
  attr {
    key: "dtype"
    value {
      type: DT_INT32
    }
  }
  attr {
    key: "value"
    value {
      tensor {
        dtype: DT_INT32
        tensor_shape {
          dim {
            size: 1
          }
        }
        int_val: 0
      }
    }
  }
}
node {
  name: "deep_cluster_gn/graph_builder/rechit_gcn/distance/strided_slice_2/stack_1"
  op: "Const"
  attr {
    key: "dtype"
    value {
      type: DT_INT32
    }
  }
  attr {
    key: "value"
    value {
      tensor {
        dtype: DT_INT32
        tensor_shape {
          dim {
            size: 1
          }
        }
        int_val: 1
      }
    }
  }
}
node {
  name: "deep_cluster_gn/graph_builder/rechit_gcn/distance/strided_slice_2/stack_2"
  op: "Const"
  attr {
    key: "dtype"
    value {
      type: DT_INT32
    }
  }
  attr {
    key: "value"
    value {
      tensor {
        dtype: DT_INT32
        tensor_shape {
          dim {
            size: 1
          }
        }
        int_val: 1
      }
    }
  }
}
node {
  name: "deep_cluster_gn/graph_builder/rechit_gcn/distance/strided_slice_2"
  op: "StridedSlice"
  input: "deep_cluster_gn/graph_builder/rechit_gcn/distance/Shape_2"
  input: "deep_cluster_gn/graph_builder/rechit_gcn/distance/strided_slice_2/stack"
  input: "deep_cluster_gn/graph_builder/rechit_gcn/distance/strided_slice_2/stack_1"
  input: "deep_cluster_gn/graph_builder/rechit_gcn/distance/strided_slice_2/stack_2"
  attr {
    key: "Index"
    value {
      type: DT_INT32
    }
  }
  attr {
    key: "T"
    value {
      type: DT_INT32
    }
  }
  attr {
    key: "begin_mask"
    value {
      i: 0
    }
  }
  attr {
    key: "ellipsis_mask"
    value {
      i: 0
    }
  }
  attr {
    key: "end_mask"
    value {
      i: 0
    }
  }
  attr {
    key: "new_axis_mask"
    value {
      i: 0
    }
  }
  attr {
    key: "shrink_axis_mask"
    value {
      i: 1
    }
  }
}
node {
  name: "deep_cluster_gn/graph_builder/rechit_gcn/distance/Shape_3"
  op: "Shape"
  input: "deep_cluster_gn/graph_builder/rechit_gcn/distance/Sum_1"
  attr {
    key: "T"
    value {
      type: DT_FLOAT
    }
  }
  attr {
    key: "out_type"
    value {
      type: DT_INT32
    }
  }
}
node {
  name: "deep_cluster_gn/graph_builder/rechit_gcn/distance/strided_slice_3/stack"
  op: "Const"
  attr {
    key: "dtype"
    value {
      type: DT_INT32
    }
  }
  attr {
    key: "value"
    value {
      tensor {
        dtype: DT_INT32
        tensor_shape {
          dim {
            size: 1
          }
        }
        int_val: 1
      }
    }
  }
}
node {
  name: "deep_cluster_gn/graph_builder/rechit_gcn/distance/strided_slice_3/stack_1"
  op: "Const"
  attr {
    key: "dtype"
    value {
      type: DT_INT32
    }
  }
  attr {
    key: "value"
    value {
      tensor {
        dtype: DT_INT32
        tensor_shape {
          dim {
            size: 1
          }
        }
        int_val: 2
      }
    }
  }
}
node {
  name: "deep_cluster_gn/graph_builder/rechit_gcn/distance/strided_slice_3/stack_2"
  op: "Const"
  attr {
    key: "dtype"
    value {
      type: DT_INT32
    }
  }
  attr {
    key: "value"
    value {
      tensor {
        dtype: DT_INT32
        tensor_shape {
          dim {
            size: 1
          }
        }
        int_val: 1
      }
    }
  }
}
node {
  name: "deep_cluster_gn/graph_builder/rechit_gcn/distance/strided_slice_3"
  op: "StridedSlice"
  input: "deep_cluster_gn/graph_builder/rechit_gcn/distance/Shape_3"
  input: "deep_cluster_gn/graph_builder/rechit_gcn/distance/strided_slice_3/stack"
  input: "deep_cluster_gn/graph_builder/rechit_gcn/distance/strided_slice_3/stack_1"
  input: "deep_cluster_gn/graph_builder/rechit_gcn/distance/strided_slice_3/stack_2"
  attr {
    key: "Index"
    value {
      type: DT_INT32
    }
  }
  attr {
    key: "T"
    value {
      type: DT_INT32
    }
  }
  attr {
    key: "begin_mask"
    value {
      i: 0
    }
  }
  attr {
    key: "ellipsis_mask"
    value {
      i: 0
    }
  }
  attr {
    key: "end_mask"
    value {
      i: 0
    }
  }
  attr {
    key: "new_axis_mask"
    value {
      i: 0
    }
  }
  attr {
    key: "shrink_axis_mask"
    value {
      i: 1
    }
  }
}
node {
  name: "deep_cluster_gn/graph_builder/rechit_gcn/distance/Reshape_1/shape/2"
  op: "Const"
  attr {
    key: "dtype"
    value {
      type: DT_INT32
    }
  }
  attr {
    key: "value"
    value {
      tensor {
        dtype: DT_INT32
        tensor_shape {
        }
        int_val: 1
      }
    }
  }
}
node {
  name: "deep_cluster_gn/graph_builder/rechit_gcn/distance/Reshape_1/shape/3"
  op: "Const"
  attr {
    key: "dtype"
    value {
      type: DT_INT32
    }
  }
  attr {
    key: "value"
    value {
      tensor {
        dtype: DT_INT32
        tensor_shape {
        }
        int_val: -1
      }
    }
  }
}
node {
  name: "deep_cluster_gn/graph_builder/rechit_gcn/distance/Reshape_1/shape"
  op: "Pack"
  input: "deep_cluster_gn/graph_builder/rechit_gcn/distance/strided_slice_2"
  input: "deep_cluster_gn/graph_builder/rechit_gcn/distance/strided_slice_3"
  input: "deep_cluster_gn/graph_builder/rechit_gcn/distance/Reshape_1/shape/2"
  input: "deep_cluster_gn/graph_builder/rechit_gcn/distance/Reshape_1/shape/3"
  attr {
    key: "N"
    value {
      i: 4
    }
  }
  attr {
    key: "T"
    value {
      type: DT_INT32
    }
  }
  attr {
    key: "axis"
    value {
      i: 0
    }
  }
}
node {
  name: "deep_cluster_gn/graph_builder/rechit_gcn/distance/Reshape_1"
  op: "Reshape"
  input: "deep_cluster_gn/graph_builder/rechit_gcn/distance/Sum_1"
  input: "deep_cluster_gn/graph_builder/rechit_gcn/distance/Reshape_1/shape"
  attr {
    key: "T"
    value {
      type: DT_FLOAT
    }
  }
  attr {
    key: "Tshape"
    value {
      type: DT_INT32
    }
  }
}
node {
  name: "deep_cluster_gn/graph_builder/rechit_gcn/distance/add"
  op: "AddV2"
  input: "deep_cluster_gn/graph_builder/rechit_gcn/distance/sub"
  input: "deep_cluster_gn/graph_builder/rechit_gcn/distance/Reshape_1"
  attr {
    key: "T"
    value {
      type: DT_FLOAT
    }
  }
}
node {
  name: "deep_cluster_gn/graph_builder/rechit_gcn/distance/clip_by_value/Minimum/y"
  op: "Const"
  attr {
    key: "dtype"
    value {
      type: DT_FLOAT
    }
  }
  attr {
    key: "value"
    value {
      tensor {
        dtype: DT_FLOAT
        tensor_shape {
        }
        float_val: 999999995904.0
      }
    }
  }
}
node {
  name: "deep_cluster_gn/graph_builder/rechit_gcn/distance/clip_by_value/Minimum"
  op: "Minimum"
  input: "deep_cluster_gn/graph_builder/rechit_gcn/distance/add"
  input: "deep_cluster_gn/graph_builder/rechit_gcn/distance/clip_by_value/Minimum/y"
  attr {
    key: "T"
    value {
      type: DT_FLOAT
    }
  }
}
node {
  name: "deep_cluster_gn/graph_builder/rechit_gcn/distance/clip_by_value/y"
  op: "Const"
  attr {
    key: "dtype"
    value {
      type: DT_FLOAT
    }
  }
  attr {
    key: "value"
    value {
      tensor {
        dtype: DT_FLOAT
        tensor_shape {
        }
        float_val: 9.999999960041972e-13
      }
    }
  }
}
node {
  name: "deep_cluster_gn/graph_builder/rechit_gcn/distance/clip_by_value"
  op: "Maximum"
  input: "deep_cluster_gn/graph_builder/rechit_gcn/distance/clip_by_value/Minimum"
  input: "deep_cluster_gn/graph_builder/rechit_gcn/distance/clip_by_value/y"
  attr {
    key: "T"
    value {
      type: DT_FLOAT
    }
  }
}
node {
  name: "deep_cluster_gn/graph_builder/rechit_gcn/distance/Sqrt"
  op: "Sqrt"
  input: "deep_cluster_gn/graph_builder/rechit_gcn/distance/clip_by_value"
  attr {
    key: "T"
    value {
      type: DT_FLOAT
    }
  }
}
node {
  name: "deep_cluster_gn/graph_builder/rechit_gcn/distance/mul_1"
  op: "Mul"
  input: "deep_cluster_gn/graph_builder/rechit_gcn/distance/mul_1/x"
  input: "deep_cluster_gn/graph_builder/rechit_gcn/distance/Sqrt"
  attr {
    key: "T"
    value {
      type: DT_FLOAT
    }
  }
}
node {
  name: "deep_cluster_gn/graph_builder/rechit_gcn/distance/Exp"
  op: "Exp"
  input: "deep_cluster_gn/graph_builder/rechit_gcn/distance/mul_1"
  attr {
    key: "T"
    value {
      type: DT_FLOAT
    }
  }
}
node {
  name: "deep_cluster_gn/graph_builder/Sum/reduction_indices"
  op: "Const"
  attr {
    key: "dtype"
    value {
      type: DT_INT32
    }
  }
  attr {
    key: "value"
    value {
      tensor {
        dtype: DT_INT32
        tensor_shape {
        }
        int_val: -1
      }
    }
  }
}
node {
  name: "deep_cluster_gn/graph_builder/Sum"
  op: "Sum"
  input: "input_3"
  input: "deep_cluster_gn/graph_builder/Sum/reduction_indices"
  attr {
    key: "T"
    value {
      type: DT_FLOAT
    }
  }
  attr {
    key: "Tidx"
    value {
      type: DT_INT32
    }
  }
  attr {
    key: "keep_dims"
    value {
      b: false
    }
  }
}
node {
  name: "deep_cluster_gn/graph_builder/NotEqual/y"
  op: "Const"
  attr {
    key: "dtype"
    value {
      type: DT_FLOAT
    }
  }
  attr {
    key: "value"
    value {
      tensor {
        dtype: DT_FLOAT
        tensor_shape {
        }
        float_val: 0.0
      }
    }
  }
}
node {
  name: "deep_cluster_gn/graph_builder/NotEqual"
  op: "NotEqual"
  input: "deep_cluster_gn/graph_builder/Sum"
  input: "deep_cluster_gn/graph_builder/NotEqual/y"
  attr {
    key: "T"
    value {
      type: DT_FLOAT
    }
  }
  attr {
    key: "incompatible_shape_error"
    value {
      b: false
    }
  }
}
node {
  name: "deep_cluster_gn/graph_builder/Cast"
  op: "Cast"
  input: "deep_cluster_gn/graph_builder/NotEqual"
  attr {
    key: "DstT"
    value {
      type: DT_FLOAT
    }
  }
  attr {
    key: "SrcT"
    value {
      type: DT_BOOL
    }
  }
  attr {
    key: "Truncate"
    value {
      b: false
    }
  }
}
node {
  name: "deep_cluster_gn/graph_builder/rechit_gcn/strided_slice_1/stack"
  op: "Const"
  attr {
    key: "dtype"
    value {
      type: DT_INT32
    }
  }
  attr {
    key: "value"
    value {
      tensor {
        dtype: DT_INT32
        tensor_shape {
          dim {
            size: 4
          }
        }
        tensor_content: "\000\000\000\000\000\000\000\000\000\000\000\000\000\000\000\000"
      }
    }
  }
}
node {
  name: "deep_cluster_gn/graph_builder/rechit_gcn/strided_slice_1/stack_1"
  op: "Const"
  attr {
    key: "dtype"
    value {
      type: DT_INT32
    }
  }
  attr {
    key: "value"
    value {
      tensor {
        dtype: DT_INT32
        tensor_shape {
          dim {
            size: 4
          }
        }
        tensor_content: "\000\000\000\000\000\000\000\000\000\000\000\000\000\000\000\000"
      }
    }
  }
}
node {
  name: "deep_cluster_gn/graph_builder/rechit_gcn/strided_slice_1/stack_2"
  op: "Const"
  attr {
    key: "dtype"
    value {
      type: DT_INT32
    }
  }
  attr {
    key: "value"
    value {
      tensor {
        dtype: DT_INT32
        tensor_shape {
          dim {
            size: 4
          }
        }
        tensor_content: "\001\000\000\000\001\000\000\000\001\000\000\000\001\000\000\000"
      }
    }
  }
}
node {
  name: "deep_cluster_gn/graph_builder/rechit_gcn/strided_slice_1"
  op: "StridedSlice"
  input: "deep_cluster_gn/graph_builder/Cast"
  input: "deep_cluster_gn/graph_builder/rechit_gcn/strided_slice_1/stack"
  input: "deep_cluster_gn/graph_builder/rechit_gcn/strided_slice_1/stack_1"
  input: "deep_cluster_gn/graph_builder/rechit_gcn/strided_slice_1/stack_2"
  attr {
    key: "Index"
    value {
      type: DT_INT32
    }
  }
  attr {
    key: "T"
    value {
      type: DT_FLOAT
    }
  }
  attr {
    key: "begin_mask"
    value {
      i: 7
    }
  }
  attr {
    key: "ellipsis_mask"
    value {
      i: 0
    }
  }
  attr {
    key: "end_mask"
    value {
      i: 7
    }
  }
  attr {
    key: "new_axis_mask"
    value {
      i: 8
    }
  }
  attr {
    key: "shrink_axis_mask"
    value {
      i: 0
    }
  }
}
node {
  name: "deep_cluster_gn/graph_builder/rechit_gcn/strided_slice_2/stack"
  op: "Const"
  attr {
    key: "dtype"
    value {
      type: DT_INT32
    }
  }
  attr {
    key: "value"
    value {
      tensor {
        dtype: DT_INT32
        tensor_shape {
          dim {
            size: 4
          }
        }
        tensor_content: "\000\000\000\000\000\000\000\000\000\000\000\000\000\000\000\000"
      }
    }
  }
}
node {
  name: "deep_cluster_gn/graph_builder/rechit_gcn/strided_slice_2/stack_1"
  op: "Const"
  attr {
    key: "dtype"
    value {
      type: DT_INT32
    }
  }
  attr {
    key: "value"
    value {
      tensor {
        dtype: DT_INT32
        tensor_shape {
          dim {
            size: 4
          }
        }
        tensor_content: "\000\000\000\000\000\000\000\000\000\000\000\000\000\000\000\000"
      }
    }
  }
}
node {
  name: "deep_cluster_gn/graph_builder/rechit_gcn/strided_slice_2/stack_2"
  op: "Const"
  attr {
    key: "dtype"
    value {
      type: DT_INT32
    }
  }
  attr {
    key: "value"
    value {
      tensor {
        dtype: DT_INT32
        tensor_shape {
          dim {
            size: 4
          }
        }
        tensor_content: "\001\000\000\000\001\000\000\000\001\000\000\000\001\000\000\000"
      }
    }
  }
}
node {
  name: "deep_cluster_gn/graph_builder/rechit_gcn/strided_slice_2"
  op: "StridedSlice"
  input: "deep_cluster_gn/graph_builder/Cast"
  input: "deep_cluster_gn/graph_builder/rechit_gcn/strided_slice_2/stack"
  input: "deep_cluster_gn/graph_builder/rechit_gcn/strided_slice_2/stack_1"
  input: "deep_cluster_gn/graph_builder/rechit_gcn/strided_slice_2/stack_2"
  attr {
    key: "Index"
    value {
      type: DT_INT32
    }
  }
  attr {
    key: "T"
    value {
      type: DT_FLOAT
    }
  }
  attr {
    key: "begin_mask"
    value {
      i: 11
    }
  }
  attr {
    key: "ellipsis_mask"
    value {
      i: 0
    }
  }
  attr {
    key: "end_mask"
    value {
      i: 11
    }
  }
  attr {
    key: "new_axis_mask"
    value {
      i: 4
    }
  }
  attr {
    key: "shrink_axis_mask"
    value {
      i: 0
    }
  }
}
node {
  name: "deep_cluster_gn/graph_builder/rechit_gcn/matmul"
  op: "BatchMatMulV2"
  input: "deep_cluster_gn/graph_builder/rechit_gcn/strided_slice_1"
  input: "deep_cluster_gn/graph_builder/rechit_gcn/strided_slice_2"
  attr {
    key: "T"
    value {
      type: DT_FLOAT
    }
  }
  attr {
    key: "adj_x"
    value {
      b: false
    }
  }
  attr {
    key: "adj_y"
    value {
      b: false
    }
  }
}
node {
  name: "deep_cluster_gn/graph_builder/rechit_gcn/mul"
  op: "Mul"
  input: "deep_cluster_gn/graph_builder/rechit_gcn/distance/Exp"
  input: "deep_cluster_gn/graph_builder/rechit_gcn/matmul"
  attr {
    key: "T"
    value {
      type: DT_FLOAT
    }
  }
}
node {
  name: "deep_cluster_gn/graph_builder/rechit_gcn/GHC_rechits/Pow_2/y"
  op: "Const"
  attr {
    key: "dtype"
    value {
      type: DT_FLOAT
    }
  }
  attr {
    key: "value"
    value {
      tensor {
        dtype: DT_FLOAT
        tensor_shape {
        }
        float_val: 4.0
      }
    }
  }
}
node {
  name: "deep_cluster_gn/graph_builder/rechit_gcn/GHC_rechits/Pow_2"
  op: "Pow"
  input: "deep_cluster_gn/graph_builder/rechit_gcn/mul"
  input: "deep_cluster_gn/graph_builder/rechit_gcn/GHC_rechits/Pow_2/y"
  attr {
    key: "T"
    value {
      type: DT_FLOAT
    }
  }
}
node {
  name: "deep_cluster_gn/graph_builder/rechit_gcn/GHC_rechits/MatMul/ReadVariableOp/resource"
  op: "Const"
  attr {
    key: "dtype"
    value {
      type: DT_FLOAT
    }
  }
  attr {
    key: "value"
    value {
      tensor {
        dtype: DT_FLOAT
        tensor_shape {
          dim {
            size: 4
          }
          dim {
            size: 25
          }
        }
        tensor_content: "\210%\360;\325\003\264\274B\\\211<0lV\274\232.\207=\277\362\241\273\200\237\307\274\2114,=Z=\301\275t\314\324=\336l\026>7\375J<3\373\250;\010\320\266=\233>\263\272~\277S\275`@\224\275n\272j<@\305\037\272\227W\345\274\321.0<k\344\321<\363S\260<\2775\327;\014c\217;\327\266$\277\3515\352\275\264k\315;\345\240E\276H\343\326\273\372\270\261\274\n\272\'<\263\376_\275\370\264\035\274}\375\245\276\204\026\205\274\274T\233=1k\274<M,_\275\344Z\337\274`\000i<\207p\245\273\317\347k\2752\213\200\276,\017\030\275\365.\200\274@\257\025\300\222N\233\275h\352Y;_\255\326\274\035\240e>\222\342\372\275\233@\216=LD\036\277\325\210g\275aZ\232\274\205V\307>{p\020=35\227=\222A\032>=\211\331\276\313\321\305=\205\357t=\237\322\025\275O\034\021>\342\337\270\2754\214\216?\244\317%\2766f\245<\035;\010\276b\306\200\275\202\307\275>\246\277;>;\311\016=\216\311\t=\344\"\324\277\314\221\031=\266\361(\300[-[=,\016\023\277\2666\212?\266\364Q?m\350\023<)\014\256\276\273O\321\275\257[L<\365C\271\277%\376 \300a\371\210\274\201I\270\277\010p\245=\306\221\354;\252\330j?3\001\037?y\353o\274\326\221\343\275\236\250\232>\325\223\266>\344\300\"\277\333!\250>"
      }
    }
  }
}
node {
  name: "deep_cluster_gn/graph_builder/rechit_gcn/GHC_rechits/MatMul/ReadVariableOp"
  op: "Identity"
  input: "deep_cluster_gn/graph_builder/rechit_gcn/GHC_rechits/MatMul/ReadVariableOp/resource"
  attr {
    key: "T"
    value {
      type: DT_FLOAT
    }
  }
}
node {
  name: "deep_cluster_gn/graph_builder/rechit_gcn/GHC_rechits/MatMul"
  op: "BatchMatMulV2"
  input: "input_3"
  input: "deep_cluster_gn/graph_builder/rechit_gcn/GHC_rechits/MatMul/ReadVariableOp"
  attr {
    key: "T"
    value {
      type: DT_FLOAT
    }
  }
  attr {
    key: "adj_x"
    value {
      b: false
    }
  }
  attr {
    key: "adj_y"
    value {
      b: false
    }
  }
}
node {
  name: "deep_cluster_gn/graph_builder/rechit_gcn/GHC_rechits/Sum/reduction_indices"
  op: "Const"
  attr {
    key: "dtype"
    value {
      type: DT_INT32
    }
  }
  attr {
    key: "value"
    value {
      tensor {
        dtype: DT_INT32
        tensor_shape {
        }
        int_val: -1
      }
    }
  }
}
node {
  name: "deep_cluster_gn/graph_builder/rechit_gcn/GHC_rechits/Sum"
  op: "Sum"
  input: "deep_cluster_gn/graph_builder/rechit_gcn/mul"
  input: "deep_cluster_gn/graph_builder/rechit_gcn/GHC_rechits/Sum/reduction_indices"
  attr {
    key: "T"
    value {
      type: DT_FLOAT
    }
  }
  attr {
    key: "Tidx"
    value {
      type: DT_INT32
    }
  }
  attr {
    key: "keep_dims"
    value {
      b: false
    }
  }
}
node {
  name: "deep_cluster_gn/graph_builder/rechit_gcn/GHC_rechits/add/y"
  op: "Const"
  attr {
    key: "dtype"
    value {
      type: DT_FLOAT
    }
  }
  attr {
    key: "value"
    value {
      tensor {
        dtype: DT_FLOAT
        tensor_shape {
        }
        float_val: 9.999999974752427e-07
      }
    }
  }
}
node {
  name: "deep_cluster_gn/graph_builder/rechit_gcn/GHC_rechits/add"
  op: "AddV2"
  input: "deep_cluster_gn/graph_builder/rechit_gcn/GHC_rechits/Sum"
  input: "deep_cluster_gn/graph_builder/rechit_gcn/GHC_rechits/add/y"
  attr {
    key: "T"
    value {
      type: DT_FLOAT
    }
  }
}
node {
  name: "deep_cluster_gn/graph_builder/rechit_gcn/GHC_rechits/Pow/y"
  op: "Const"
  attr {
    key: "dtype"
    value {
      type: DT_FLOAT
    }
  }
  attr {
    key: "value"
    value {
      tensor {
        dtype: DT_FLOAT
        tensor_shape {
        }
        float_val: -0.5
      }
    }
  }
}
node {
  name: "deep_cluster_gn/graph_builder/rechit_gcn/GHC_rechits/Pow"
  op: "Pow"
  input: "deep_cluster_gn/graph_builder/rechit_gcn/GHC_rechits/add"
  input: "deep_cluster_gn/graph_builder/rechit_gcn/GHC_rechits/Pow/y"
  attr {
    key: "T"
    value {
      type: DT_FLOAT
    }
  }
}
node {
  name: "deep_cluster_gn/graph_builder/rechit_gcn/GHC_rechits/ExpandDims/dim"
  op: "Const"
  attr {
    key: "dtype"
    value {
      type: DT_INT32
    }
  }
  attr {
    key: "value"
    value {
      tensor {
        dtype: DT_INT32
        tensor_shape {
        }
        int_val: -1
      }
    }
  }
}
node {
  name: "deep_cluster_gn/graph_builder/rechit_gcn/GHC_rechits/ExpandDims"
  op: "ExpandDims"
  input: "deep_cluster_gn/graph_builder/rechit_gcn/GHC_rechits/Pow"
  input: "deep_cluster_gn/graph_builder/rechit_gcn/GHC_rechits/ExpandDims/dim"
  attr {
    key: "T"
    value {
      type: DT_FLOAT
    }
  }
  attr {
    key: "Tdim"
    value {
      type: DT_INT32
    }
  }
}
node {
  name: "deep_cluster_gn/graph_builder/rechit_gcn/GHC_rechits/Pow_1/y"
  op: "Const"
  attr {
    key: "dtype"
    value {
      type: DT_FLOAT
    }
  }
  attr {
    key: "value"
    value {
      tensor {
        dtype: DT_FLOAT
        tensor_shape {
        }
        float_val: 4.0
      }
    }
  }
}
node {
  name: "deep_cluster_gn/graph_builder/rechit_gcn/GHC_rechits/Pow_1"
  op: "Pow"
  input: "deep_cluster_gn/graph_builder/rechit_gcn/GHC_rechits/ExpandDims"
  input: "deep_cluster_gn/graph_builder/rechit_gcn/GHC_rechits/Pow_1/y"
  attr {
    key: "T"
    value {
      type: DT_FLOAT
    }
  }
}
node {
  name: "deep_cluster_gn/graph_builder/rechit_gcn/GHC_rechits/mul"
  op: "Mul"
  input: "deep_cluster_gn/graph_builder/rechit_gcn/GHC_rechits/MatMul"
  input: "deep_cluster_gn/graph_builder/rechit_gcn/GHC_rechits/Pow_1"
  attr {
    key: "T"
    value {
      type: DT_FLOAT
    }
  }
}
node {
  name: "deep_cluster_gn/graph_builder/rechit_gcn/GHC_rechits/MatMul_1"
  op: "BatchMatMulV2"
  input: "deep_cluster_gn/graph_builder/rechit_gcn/GHC_rechits/Pow_2"
  input: "deep_cluster_gn/graph_builder/rechit_gcn/GHC_rechits/mul"
  attr {
    key: "T"
    value {
      type: DT_FLOAT
    }
  }
  attr {
    key: "adj_x"
    value {
      b: false
    }
  }
  attr {
    key: "adj_y"
    value {
      b: false
    }
  }
}
node {
  name: "deep_cluster_gn/graph_builder/rechit_gcn/GHC_rechits/mul_1"
  op: "Mul"
  input: "deep_cluster_gn/graph_builder/rechit_gcn/GHC_rechits/MatMul_1"
  input: "deep_cluster_gn/graph_builder/rechit_gcn/GHC_rechits/Pow_1"
  attr {
    key: "T"
    value {
      type: DT_FLOAT
    }
  }
}
node {
  name: "deep_cluster_gn/graph_builder/rechit_gcn/GHC_rechits/Elu"
  op: "Elu"
  input: "deep_cluster_gn/graph_builder/rechit_gcn/GHC_rechits/mul_1"
  attr {
    key: "T"
    value {
      type: DT_FLOAT
    }
  }
}
node {
  name: "deep_cluster_gn/graph_builder/rechit_gcn/GHC_rechits/mul_2"
  op: "Mul"
  input: "deep_cluster_gn/graph_builder/rechit_gcn/GHC_rechits/Sigmoid"
  input: "deep_cluster_gn/graph_builder/rechit_gcn/GHC_rechits/Elu"
  attr {
    key: "T"
    value {
      type: DT_FLOAT
    }
  }
}
node {
  name: "deep_cluster_gn/graph_builder/rechit_gcn/GHC_rechits/sub/x"
  op: "Const"
  attr {
    key: "dtype"
    value {
      type: DT_FLOAT
    }
  }
  attr {
    key: "value"
    value {
      tensor {
        dtype: DT_FLOAT
        tensor_shape {
        }
        float_val: 1.0
      }
    }
  }
}
node {
  name: "deep_cluster_gn/graph_builder/rechit_gcn/GHC_rechits/sub"
  op: "Sub"
  input: "deep_cluster_gn/graph_builder/rechit_gcn/GHC_rechits/sub/x"
  input: "deep_cluster_gn/graph_builder/rechit_gcn/GHC_rechits/Sigmoid"
  attr {
    key: "T"
    value {
      type: DT_FLOAT
    }
  }
}
node {
  name: "deep_cluster_gn/graph_builder/rechit_gcn/GHC_rechits/mul_3"
  op: "Mul"
  input: "deep_cluster_gn/graph_builder/rechit_gcn/GHC_rechits/sub"
  input: "deep_cluster_gn/graph_builder/rechit_gcn/GHC_rechits/MatMul"
  attr {
    key: "T"
    value {
      type: DT_FLOAT
    }
  }
}
node {
  name: "deep_cluster_gn/graph_builder/rechit_gcn/GHC_rechits/add_2"
  op: "AddV2"
  input: "deep_cluster_gn/graph_builder/rechit_gcn/GHC_rechits/mul_2"
  input: "deep_cluster_gn/graph_builder/rechit_gcn/GHC_rechits/mul_3"
  attr {
    key: "T"
    value {
      type: DT_FLOAT
    }
  }
}
node {
  name: "deep_cluster_gn/graph_builder/rechit_gcn/MatMul_1/ReadVariableOp/resource"
  op: "Const"
  attr {
    key: "dtype"
    value {
      type: DT_FLOAT
    }
  }
  attr {
    key: "value"
    value {
      tensor {
        dtype: DT_FLOAT
        tensor_shape {
          dim {
            size: 25
          }
          dim {
            size: 25
          }
        }
        tensor_content: "3\356\260>\306u\360>%h\006\275\260\027\024\277\255&\033?9d6>@\033\333\274\217\347\006\277\240\262\243\276\261El>Be7?\026Z\250\2755\206\005\277v\032S?\2748\304\276u\222\272\275\3620\005?\233\306\222\276\373)\247\276Q\024(?\204c\026?\342\220\237=hmh\277\306\345\017\277\327\372\240>+?\322\272\254c\250\274\351\305\372\274%\326i=`\261\322\274Fgr\275\247\222]\274aQ\001<\322WZ=\"\223\347\273\304x%=\021\356\376\274u\265\002<\013\205\326\275\025\031s=\256p\237<\245(p\275\336\312\364;$L\277<\232\035\252\273\331\035\271\274\n^\227\274Ys!:\311\207.=\2742\333\272\241RM?\001g\222>\345\345G\277\237.\255>\300\363\220\275-\357~\276Z\353,\277\232\201\005\276\216M\336\275\347cf\276-\316\216\276}\211:\277\202\202\362<\302\322\301\276\031x\234\275S\206\275\276~\026I\276{\017u>\027\341\017=\230v\307\276a\250\276>@\'\013\2743\023C\275\220\n\374>\356\3534?gz\020\276Ju\245\276\034\361\200\273\245\0059\2767\312P\276Od\243\275\301\336\001\274q\331\025>4\253_>\017a\035>\233K\243\275\213\311\021>\225-\034\272\367\344\014>G\356\027<\016k\204;\272\021=\275kmn>\340>\035>\224\2065>~\373l=\263\366\n\276h}\264<\257?\300=\261\304T>v\373\277\275i\351A>\003\024\027>\343\035\371\273\036\237t=\273\373T<\325R\306=mh\261\275\204\021e=m\361\251<\321\265\n\275$`\232\275y\004\321=\000\375)\275N\351\241=4\342\275=\005%\267=71\325= \0373>D&\265\275\307V\232=\367\245\267=\250\326\340=-\2528>\023(\242\275\027\352\341=\027F(=\026\366(\276\321\204\235=\215-\037>\363\367\372\274M\346\273=h(V< \023\217\275\334d\263<\347\013\330\275\313\3306\276\311\351A\275\345s}=\'\013w\276\343B\'\275\017\314\361:ws#=\364N\211\275} I>\341K\252=E\316\316\274\316\374\340\2750\363\243\275\336\366o><\346\226>)\026\r>\217|\027\275\307\353\010>\342R.=\3420\001\276\350\233\335\276\360K(\276\302\326L>\243\0107>\203\002|\275\246\353\006>\367\355!\276\2459\355<B\313\214>ZS\344\276\216\226\031\277\315[\344>\322#\315>\'{\303>\025\037\302>\204y\035\276\n\235C\276\2222\203>Cj\230>\005\206\234==\024*=z\010/;/\022\207=A\002\360\274DQe\274*g\305<F\300\305<\0010\257<\215\024\311\273\207\022\206=\220\013\254<\342n\367\274_Mk\274\207\220R\274\022\316\203\274z^\266\274\354\204\321\274\342\204\213\275%\363\t\275\273\020\033\275\253K0\275\3527\211\274\000\340\032\275\343\021\214=wT?=\324\363\006>\372\225\231\275\254\257\376=\256g\234\274AnR>\346m(\276P&\275\275\266\314\r>\211\004S\276\350\314\211\275\"\036\312\275\311\244W=6\270C>nhr=\315\370\336\275\344\316\215>\016\247\272=\265\331\320<\361\377\317\276gT\323\276nq\331<\3462\234\272\250\236.>\274\216\342>/\216\356;\231\246\033=\276~\245\276J\375S\275\232\033\024\276\374\031\333=M\244?\276\312\323\177\275\375.\005\2766\345\364\275\225\021\354=\005\341\301\276T\306\252\275\367\242\261\276c\322\211>\010\245\310\276\272\'y\274\030\352p\275}\334\177<\003\212H\276T\035\323<}+\005\275\274F\363\274\014\200\235=\005\234\177\276pM\266>^\273\371=T\206\202\276\332\254 \276>\370\207=u\341:\276\272\320\033\276\362\275\312=\214Hl\276n\326\275>\306\251C\275x\370^>\3000\016\277\\F\341\274\035D\300=\374\264@\277\315\237\253\276|-\211>\366Y_\275\201x\247>\326\253\r?;\352\376;\331\262\217=\314V=\276\203\211\210\274p,\001\276\260\325}\276\033\265\311=\257\265\037\276\252\373\226\275@O\030\275\301\254%>w_\366=\tSU>\233\r*\274\301/3\277E4d>Kps\275\210\036:>s\216\202\276\272br>(;\005\276;\002\344\275\340c\261=H\345W=\265S\331\2755\363\261=B\303\204\275cD\327=GG\314>\345W\3449\235o\204\275\360-\020\275\304\345\265>\212\316A=\312\234\362<\355\030\360=\2605Y>&I\024\275\330\034\236\275o\303\210>\337\330\207\275\007+\024\276\222\2016=\202\211\364\274\373\0243=-\307\237\275\350\242\276\275\220\365\262=P\363\207:\324\261a>?\202\353\275\272\354\343\2754\323\310\275\t\014\034\276\003P\325\274\303@\265\275\013\333J=NX\031=\316\366\275<\254\0175\275\320p\203\275X7@\273\354\023\250\275m\300T9\003\371\026<s\033k\273\334w\303\274\306\360 =!m\253\274f<\202<\213\030\202;\245\214\322;PLC\275\221T\2349\367\325\014\275\202\261\345\274j\327\266<\037P\007\275h\307\221<\024\377\t\277\201\014\315\276_U\224\276\370L>\276\'\206\242\276,\214\027\275jG+?\177\327R?\020\023v?g\365\254\275\245\311\353>\240\222\021\277\002\"\335\276@\275\311\276$9D?\204\360\315>.\243F?_KS>\323\345\005\277_\335T>\277\006\213\275j\237J\276\3706\210\277x\314\214>\2452t\276B\341\017\274\3266\014<\221&\271\275\300\355\255\273\006\364\241\275\246\305L\276q\363\r\274\333U(=X\375\266<z\014f=-\327W\275L\367s=\201[3=\204_\271<\325s\251\275\002\032\003;c\033\360<d\236\246=\245f\360=\373(p=\207\220s=R\361\374\274b2~<=\203-=\"Fz\275uxU\276\230\003Z>-\356\001\2751w\224\275Y\366\007\275\3132\204\274@]\320\274\322&\033\274\271\031\221\276\214\221\340=\2557\336<\300\223\204\275\020\224b\276Qb\\\276K\003\235\275aQ\312=,\033\310=\310L\233=bq>>\374Ls\274t|\304=<\373\002<\312\347\274<bot\275\2656e>\222D\005\276\356\031\207=\263\031^=;\354\037\275y\265_=\346|\313=\302\006\223<u\035\007>\207[\017\275,\023\307\275\006A\313\275\255g=>;b\302\273\000C)\276\260\334q\275\323\213\211=\212#\216=\2604\366=\354:\035>\256GR\276\250\232\317= <2\276jd\241<\301\350\251<\342\374\304<?\007\235\275\315i\330;\313\245\256>\2636\377=\260\3432\274\021 \222\276\024\304O\274\"\334u\274\000\231\330=\037\224\000\276\000\230;\276;\373\270=\335\316\263>\311I\271>\0140\030>\345&X>Y\350\265\276\210\005\260=V\274\003>\007\347c\276\236\330\210>R\024\222=8k\026?\257=\302<\333\036\306>Y\202%\275\252t\014\275){\236=b.\016=\275\372Q\275,\261L<[\247\211=\261\023M\272\224\312\274<\346\330\205=C\247\202\272\032\323\254=\266z\224=\264\tb\275\233\354\250:\374z$=?oq=\301\254\033\274\356%\353;\033\344\301<\016p\254\273\3133\307=0\310\224=\374\305\342<\335Z\212<\346\221\367<X\016G=\032\\\013=\037s\242\276\301\270\245=\\r\321\275b\353\326\275}\330l<\2771\343<\276\224*<\216|\264\273\306B\220=K!g\2752\265I>jB\325\2742\306\033\274,\323\255\275\352bw\276<C\256>\242&\272\274\351\247\356\275/\315\331\274\327\021Y\275a\246%>t\215\301;\214\354H>Md\226\274\275\373\332\275\022\n\261\276M\305m>\240o\256>s@\343=\263\311q\276:\364\331\276\376B\264=\250\334Q?Q\327`>\013\004\242\275\025\362\342>r\316\207\276\206\325\302\276\252\223\206\276\357\242\223\276~\311\273\275\342\253\303=\237\2205?l\262\216>\272\227\260>zUJ\276\236\213\020>k\320\215\275\364\324\261\274\200\342~<F\025\217\275\346\3066\275\007X\260\273\013\213\001\272\323T =\034\247\006\275\334~\223\274\030\210\363\274\014\303\'={\2474\273H@\354\275d\0060\275\234{\346<\311r\376;\320\005\204\274\332\201\237<I\334\003\2755\255\302<D\301<\275De\267<\005\013\233\275\017}l=\242p\025=7\230\341\274zV\204=\013\2258\274J\007\007\273]o\032\275\317\344\250\2754M\261\275Z\317\004=n\244\'\275\275\005\312\275\016\271\362=\257\357\347\273d\215\021<\021\275\363\275N\376\360\275L\250\232=\322\264\305<7\224/\275\000\333\225=_rx=1\304\314<j\004x\274\222\312\031\276\315\331v\274\372\312\232\275<\353\222\274\376\352\256\272\3174\350\273\213\332\376\275&\375\351=:\335\004\274R\275\"\275\311\271\227\275\2444\016\275{b\010=\245\315!<\017/\200\276\273\265\'\275=\266\221=+10=\003S6>\r\013\"\276\234P&>\035\202<\276\201\250\232</\317\266>\357\031\335\275\303\217-=\001\241\225="
      }
    }
  }
}
node {
  name: "deep_cluster_gn/graph_builder/rechit_gcn/MatMul_1/ReadVariableOp"
  op: "Identity"
  input: "deep_cluster_gn/graph_builder/rechit_gcn/MatMul_1/ReadVariableOp/resource"
  attr {
    key: "T"
    value {
      type: DT_FLOAT
    }
  }
}
node {
  name: "deep_cluster_gn/graph_builder/rechit_gcn/MatMul_1"
  op: "BatchMatMulV2"
  input: "deep_cluster_gn/graph_builder/rechit_gcn/GHC_rechits/add_2"
  input: "deep_cluster_gn/graph_builder/rechit_gcn/MatMul_1/ReadVariableOp"
  attr {
    key: "T"
    value {
      type: DT_FLOAT
    }
  }
  attr {
    key: "adj_x"
    value {
      b: false
    }
  }
  attr {
    key: "adj_y"
    value {
      b: false
    }
  }
}
node {
  name: "deep_cluster_gn/graph_builder/rechit_gcn/MatMul_2/ReadVariableOp/resource"
  op: "Const"
  attr {
    key: "dtype"
    value {
      type: DT_FLOAT
    }
  }
  attr {
    key: "value"
    value {
      tensor {
        dtype: DT_FLOAT
        tensor_shape {
          dim {
            size: 25
          }
          dim {
            size: 25
          }
        }
        tensor_content: "tB\t\277\\\311\302>Y\255\232\275\222\370\323\277\367\202A?\342-\036\277\364\214E\277\013=\010\277\200&\234\277\037*\031\276\301R\007>\277J\370>\262\375\351=\224\002\347\277\r\321\031\277\253\264\222\276\2734\336>\030\222\300\277Vv\231?\225G\210\277\241o\007?\303J\032?I\177\257\276u\3442?.\263\303?c\271\004\275&}\274\274\025\021\244<:^$\274\346\374*\274;\316\307<\321{w=a\236\354<L\027\321<\374\335z<\315^C=\200\253_=\241mo\273\277#(=\266\2108<\224\036\302<28\031\274\234\001\300:_-M<\305\210P=\315s\244=\302\273\226;\220\266\225\273\002Q6\274\364\321D=\212\375\217\276\365\023\200<S\303\263>\206\027\310\276\014\367\363\274\2734\214\276j\304s=\024\036\331\276j\266Q\277\353s\232>{\010c\275K\355\341>\276\206\324>X=\237\276.\211\362\276\205d\315:!G\020>>-N\275b\361\235\276*/\3249\277]\241=4\222\226\275\027\033\016?\005\222+\276?\027\\?\265S\322\274\362\274\254\272qs\r\275\037\350\277=_\302\244\275\334\353\213=x\327}<PZ\263=L4\017\276\014\224\003\275vm\332\274\357\034\301\275{\327\016\273j\351d\274{\376\231\275\".(=\220\211\236=\237\013P<l,\354;\217uC\276\356\257\302\275\354HW\274y\305a=\373\027N;\355\212.=(V\335\275\356**\276\312\367\245=\3445\347\275\34140\2757(>>\014\311!>`\364t>\372\307<>9x>=|X\\>\327\024a>\216\030\240\276\004\005\313=\305lI\276\300\333(=\203\310*>h\355Y\276&N\233\275MC\307=\272\333\242\275\360*\244\275\355Z\255\276*\2403\276oY\t=v!\020>\346\027>=>%\005\276\314\310\311\275\370\035\236\274\241\263\273:\332\252>\276)\377\204\275\305\337G=\272\t\261=8O\207\276\361z\325=\345\372\331\275\367S8>\033\005U\275\247\352\342\275\325\346\026\2750/5=\326]\251\2745wM>\304.\n=\241\256<\275\307\006\305\275\304u\204\274\232\277\226>C1\362>\324\003^\276aa\220\276\365J\022?\t\272\026\276\333\334q\275\017\376\367\275\347\262w>_+a>\322\211\026\276p(s>\377\326\016\276\222\335\357<P\363\031>W\302R>,\257\252\276\022\263\010\277~\307F\274/\224a>\000*\336\275\377\032i>\351l\273\275\350y\237>\'\203==kW\356\276_\034\253=+\326\000>\013Y\273=\313\0259=\300\275\022>\335\214\"\276v\271\273\275\033\214\000\276a\251\006==\242\232\275\256r?=\271\277\206\276\365\274\327=\275\242\221>\252T\264=\365>\251\274\246\207\301=\327Q\334\272P\225\246\275\312\002\021\276\034`\016\2756\'6<\022\306\341=\267\327#>5\321\246<{\251\n\276\257y\324<\200\226\261<\341\320\351\276n^Q>\337y\026?\276\307\024=\217\014e\276\244\326\010=\311z\031>M\242\345\276[\375M\276\2172\264\276\336-\007\277\205\370\206>U\010\313\276\\\'\317>$\2755>[7\303\276u*\240>\365\253\231\276\177\377c\275\303M\266\276E\320\211\276\256\200\226\276\334\310\241=\247\034\034\277\257\022\355\276\277\243=\277SI[=p~}>\326\237P\275e\315\365=o\230D?\301\177z\276\224\262\343>sY\271\276!NG\275\037B\206\276\275\017U\276`b]>\202\360+?\340\335:\276\r\ne\276\340\221\234>\211v\330\276\010\006=\277\317\311\227\277\222 6>Jx\025>\243%\r\276\215$\370\274\335\311\317>\t&\\?\316)C=\027 \357\276\\\000-\276\030\354E=\002\331\330>/\242\260=\231l\224\276z!7?\234\010f>c\304\027?\004\345\005\274\352\007\302\275\212\267N\276+\234<?\007\364y>\317V\022>\247\236x\275\372f\212\276\017\260\013?\275\230R>(^\272>\230S\025\275GZ\305\275f\035Q>\0212X>wG\357=\204\277{>\020\023\256\275\355G\302\275\035\025\016>?i\322\276\027\323\206>H\t\261;-\2264>w\367\316=\002\031C\276B.\230>\264\200\022>\306\274\026\277\014\234\252=\0202\032\276\303\312R>\270\363\301=\333\310N\276v\360\246\275\335\366\347> \253\216=>L\303=\371l\034\276\324\227\000>\250x\r>\323\245\330<!)\250\275\313\236\031;\227\267\001\276\241\306\347=\213\271i\2759J\r\2767\363D\276\366\023t\275\201\230v<\363\307\001\276_\210R=\334\247\225=]}\375\274_wB>\344\021\t\276[\236\255\275\307\306d\276Z\321]=]\035\340;7\344c>^\3106\276\315\340b;\327\235\033>\271\326\273=\352c\014>\371N\215\275\263\275\234\275uH\034\274\002\272\013\276\216\327\010;\215i\257\274uJ]=&\307\223=\200\262\257\275\233\022\032\275\240\320\004\27603G\276o\373\200\276\214\357\230\275\270\207c\276\315S\307=.\316_\275\324\330?\274\020\252\032\276\035F\246>\032w\323\276#\217\001\277!\340\001=\314_\333=\\($>\306\313\243>\352\"\352>\273\324+\277W\244\204\277\201mq?k\030{>\322\372\356=\322_%\277\020\262\022\277Q\354J\276\375\326\232>\t\373\253\277\335\\$\276:\3707\277\315\366\333>Dt\360>IT\025\276*\003H\277\036\037X?\232\2658\275\236\350\212>\227\311,=\334H\304=\346>\356\276\\\020\006\275\253\376\261<\314\333\236=\267\263\177<D9\035\276\302\353Y>h\275\316\2758\274\217>\027%\017\276\306\352*\276\302\241`\276\371\r\245>\305\210!>\334\002\246<m4\305\276O\375\006>If\276\275\304/!\275\356NK>\223$r\276[H\277\275\315\357g>\315Z\252;}\255\311<_\351\004>\267i_>\373\213.\276~\225r\275Q\242\024>\277\367\231=\346\\o=\023\006\245=SF\010\276\310\321\216\275\212\373r=\030\364G\275\031IQ=\260h\017>\205\305\032>T^T\275+\260\370\275\007\262X\276\233\265T\275\322e\217=\330\313\356=u(`\275\313\224#=\201\252\373<\300\204\255=\324\256\200=\201\005\314;\351\214o=P\262\206=\030\n\202<\216E\307;\261\033Z<l[\344<\376\202\252\275\220\310\030=\010\347S=\373\2074=\203\n\320<\013w\302\273Y\276\234<\\\205L=3T\231\275\275\351U\275[}\001\276\021y\275;\367\023\014\275\223\035\375\276\302\204\030=\347)p=W\224\'>\265c(\276p\347\272\273\254\336\355>\236GG\274\243\377\260>\3547\203=\315t\213\2768\235\253\2761i\251=\3625\325\276\310\254\276>\217\300\345>Y\351\027?Q2\222=\377\316\316\276\372\211\224\275\222\253\370\276\026=>>q\037\212\276\"\325\n> \\\324\276\330\204\037=\365\321\035\275\330d\210\275\034d\206=V\351\235\275\324j\021\275M4\t\275a\341Z>s\314\013\275\266\342i\275\236u\013;;\347A\274\265G\305\272\253\256\034\273\360\253-=\212\3778\275\376\235\035\274\277o\r=\305\347\036\276\2229S\275\034\224\210\275.\361u\276\352c\212;\330%\017\276\342\226I\275\362\010=\275\"Q\006=\307\r!=o$\006>\364]\356\274\240)M\273\355Y\212=b\345~=r|\202=\250EY<\263\3760\272\346\023\207\273\337\260\246\274\037\2570\275\221Nf=\315\322Q=\r&\276<Q\330t=F\207\037=\221m\'\275\356\264\002<\231@\007\274\203\340\323\273\257\255^=\340m\266\274k\343\273\276&\232\036>\224\263\033?(\254\205\276=\340\357<\317\2550\277\031\2567\277\266\260\026\277u\350\025\277\014-\300\274c\203\035>\331\367\221>\234L\003\277\005\367\202\277\026N\303>\007x\321:,\266\037>-\017\203\276x@\264>\345\204@\277\316\362\254>\245\017\r?\323\003\242=\277\tg\275\031lW?2\300?\275:\310\373<e\231=<n\317\233<@\223\036=\013b8\275Cq\323=\367\342]=\302:N\274r\222-=q]\331;k\004#\275\242\007H\275\264\271\023<\014\343\362<h.\220=\374\240\212\273|\273\217<\3708}\274\274\271\323=\251\2149\275>\346}\275\301\245\374\274\325\212s\274J\351\223\2746\224\233\274\243\313\t=\204\237\240<;Q}\275}\370\245\275\rz090\272\315<5\241\241\274\003J\354\274,:\332;t@\205=\210\260\000=t\014l=\223\351\305\273[\327\"\275\006\320\361\274\200\246\345<\361\203+\273N\345\212<\234W\356\274\265\022d\275\340q\346<\354\243\224=jN/=\245`\235\275\004\203K;/\236\220=\\\016<=\376\332\272<\316\004\253=:\307\251=L\262\230\275\374r\003=\236\323`\275\345\001Q\273-sA\276\336\365C>\244\352\222\275\273z\236=g\272\355\275\205\221\216=\276\234I=\234\204\364<C\325\225=y\245?\275\314\276\376=\345\264\336\275\3121/\275e\020l\275Q/\351\274"
      }
    }
  }
}
node {
  name: "deep_cluster_gn/graph_builder/rechit_gcn/MatMul_2/ReadVariableOp"
  op: "Identity"
  input: "deep_cluster_gn/graph_builder/rechit_gcn/MatMul_2/ReadVariableOp/resource"
  attr {
    key: "T"
    value {
      type: DT_FLOAT
    }
  }
}
node {
  name: "deep_cluster_gn/graph_builder/rechit_gcn/MatMul_2"
  op: "BatchMatMulV2"
  input: "deep_cluster_gn/graph_builder/rechit_gcn/GHC_rechits/add_2"
  input: "deep_cluster_gn/graph_builder/rechit_gcn/MatMul_2/ReadVariableOp"
  attr {
    key: "T"
    value {
      type: DT_FLOAT
    }
  }
  attr {
    key: "adj_x"
    value {
      b: false
    }
  }
  attr {
    key: "adj_y"
    value {
      b: false
    }
  }
}
node {
  name: "deep_cluster_gn/graph_builder/rechit_gcn/MatMul_4"
  op: "BatchMatMulV2"
  input: "deep_cluster_gn/graph_builder/rechit_gcn/MatMul_1"
  input: "deep_cluster_gn/graph_builder/rechit_gcn/MatMul_2"
  attr {
    key: "T"
    value {
      type: DT_FLOAT
    }
  }
  attr {
    key: "adj_x"
    value {
      b: false
    }
  }
  attr {
    key: "adj_y"
    value {
      b: true
    }
  }
}
node {
  name: "deep_cluster_gn/graph_builder/rechit_gcn/Shape"
  op: "Shape"
  input: "deep_cluster_gn/graph_builder/rechit_gcn/MatMul_2"
  attr {
    key: "T"
    value {
      type: DT_FLOAT
    }
  }
  attr {
    key: "out_type"
    value {
      type: DT_INT32
    }
  }
}
node {
  name: "deep_cluster_gn/graph_builder/rechit_gcn/strided_slice_4/stack"
  op: "Const"
  attr {
    key: "dtype"
    value {
      type: DT_INT32
    }
  }
  attr {
    key: "value"
    value {
      tensor {
        dtype: DT_INT32
        tensor_shape {
          dim {
            size: 1
          }
        }
        int_val: -1
      }
    }
  }
}
node {
  name: "deep_cluster_gn/graph_builder/rechit_gcn/strided_slice_4/stack_1"
  op: "Const"
  attr {
    key: "dtype"
    value {
      type: DT_INT32
    }
  }
  attr {
    key: "value"
    value {
      tensor {
        dtype: DT_INT32
        tensor_shape {
          dim {
            size: 1
          }
        }
        int_val: 0
      }
    }
  }
}
node {
  name: "deep_cluster_gn/graph_builder/rechit_gcn/strided_slice_4/stack_2"
  op: "Const"
  attr {
    key: "dtype"
    value {
      type: DT_INT32
    }
  }
  attr {
    key: "value"
    value {
      tensor {
        dtype: DT_INT32
        tensor_shape {
          dim {
            size: 1
          }
        }
        int_val: 1
      }
    }
  }
}
node {
  name: "deep_cluster_gn/graph_builder/rechit_gcn/strided_slice_4"
  op: "StridedSlice"
  input: "deep_cluster_gn/graph_builder/rechit_gcn/Shape"
  input: "deep_cluster_gn/graph_builder/rechit_gcn/strided_slice_4/stack"
  input: "deep_cluster_gn/graph_builder/rechit_gcn/strided_slice_4/stack_1"
  input: "deep_cluster_gn/graph_builder/rechit_gcn/strided_slice_4/stack_2"
  attr {
    key: "Index"
    value {
      type: DT_INT32
    }
  }
  attr {
    key: "T"
    value {
      type: DT_INT32
    }
  }
  attr {
    key: "begin_mask"
    value {
      i: 0
    }
  }
  attr {
    key: "ellipsis_mask"
    value {
      i: 0
    }
  }
  attr {
    key: "end_mask"
    value {
      i: 0
    }
  }
  attr {
    key: "new_axis_mask"
    value {
      i: 0
    }
  }
  attr {
    key: "shrink_axis_mask"
    value {
      i: 1
    }
  }
}
node {
  name: "deep_cluster_gn/graph_builder/rechit_gcn/Cast"
  op: "Cast"
  input: "deep_cluster_gn/graph_builder/rechit_gcn/strided_slice_4"
  attr {
    key: "DstT"
    value {
      type: DT_FLOAT
    }
  }
  attr {
    key: "SrcT"
    value {
      type: DT_INT32
    }
  }
  attr {
    key: "Truncate"
    value {
      b: false
    }
  }
}
node {
  name: "deep_cluster_gn/graph_builder/rechit_gcn/Sqrt"
  op: "Sqrt"
  input: "deep_cluster_gn/graph_builder/rechit_gcn/Cast"
  attr {
    key: "T"
    value {
      type: DT_FLOAT
    }
  }
}
node {
  name: "deep_cluster_gn/graph_builder/rechit_gcn/truediv"
  op: "RealDiv"
  input: "deep_cluster_gn/graph_builder/rechit_gcn/MatMul_4"
  input: "deep_cluster_gn/graph_builder/rechit_gcn/Sqrt"
  attr {
    key: "T"
    value {
      type: DT_FLOAT
    }
  }
}
node {
  name: "deep_cluster_gn/graph_builder/rechit_gcn/sub/x"
  op: "Const"
  attr {
    key: "dtype"
    value {
      type: DT_FLOAT
    }
  }
  attr {
    key: "value"
    value {
      tensor {
        dtype: DT_FLOAT
        tensor_shape {
        }
        float_val: 1.0
      }
    }
  }
}
node {
  name: "deep_cluster_gn/graph_builder/rechit_gcn/strided_slice_3/stack"
  op: "Const"
  attr {
    key: "dtype"
    value {
      type: DT_INT32
    }
  }
  attr {
    key: "value"
    value {
      tensor {
        dtype: DT_INT32
        tensor_shape {
          dim {
            size: 4
          }
        }
        tensor_content: "\000\000\000\000\000\000\000\000\000\000\000\000\000\000\000\000"
      }
    }
  }
}
node {
  name: "deep_cluster_gn/graph_builder/rechit_gcn/strided_slice_3/stack_1"
  op: "Const"
  attr {
    key: "dtype"
    value {
      type: DT_INT32
    }
  }
  attr {
    key: "value"
    value {
      tensor {
        dtype: DT_INT32
        tensor_shape {
          dim {
            size: 4
          }
        }
        tensor_content: "\000\000\000\000\000\000\000\000\000\000\000\000\000\000\000\000"
      }
    }
  }
}
node {
  name: "deep_cluster_gn/graph_builder/rechit_gcn/strided_slice_3/stack_2"
  op: "Const"
  attr {
    key: "dtype"
    value {
      type: DT_INT32
    }
  }
  attr {
    key: "value"
    value {
      tensor {
        dtype: DT_INT32
        tensor_shape {
          dim {
            size: 4
          }
        }
        tensor_content: "\001\000\000\000\001\000\000\000\001\000\000\000\001\000\000\000"
      }
    }
  }
}
node {
  name: "deep_cluster_gn/graph_builder/rechit_gcn/strided_slice_3"
  op: "StridedSlice"
  input: "deep_cluster_gn/graph_builder/Cast"
  input: "deep_cluster_gn/graph_builder/rechit_gcn/strided_slice_3/stack"
  input: "deep_cluster_gn/graph_builder/rechit_gcn/strided_slice_3/stack_1"
  input: "deep_cluster_gn/graph_builder/rechit_gcn/strided_slice_3/stack_2"
  attr {
    key: "Index"
    value {
      type: DT_INT32
    }
  }
  attr {
    key: "T"
    value {
      type: DT_FLOAT
    }
  }
  attr {
    key: "begin_mask"
    value {
      i: 11
    }
  }
  attr {
    key: "ellipsis_mask"
    value {
      i: 0
    }
  }
  attr {
    key: "end_mask"
    value {
      i: 11
    }
  }
  attr {
    key: "new_axis_mask"
    value {
      i: 4
    }
  }
  attr {
    key: "shrink_axis_mask"
    value {
      i: 0
    }
  }
}
node {
  name: "deep_cluster_gn/graph_builder/rechit_gcn/sub"
  op: "Sub"
  input: "deep_cluster_gn/graph_builder/rechit_gcn/sub/x"
  input: "deep_cluster_gn/graph_builder/rechit_gcn/strided_slice_3"
  attr {
    key: "T"
    value {
      type: DT_FLOAT
    }
  }
}
node {
  name: "deep_cluster_gn/graph_builder/rechit_gcn/mul_1/y"
  op: "Const"
  attr {
    key: "dtype"
    value {
      type: DT_FLOAT
    }
  }
  attr {
    key: "value"
    value {
      tensor {
        dtype: DT_FLOAT
        tensor_shape {
        }
        float_val: -1000000000.0
      }
    }
  }
}
node {
  name: "deep_cluster_gn/graph_builder/rechit_gcn/mul_1"
  op: "Mul"
  input: "deep_cluster_gn/graph_builder/rechit_gcn/sub"
  input: "deep_cluster_gn/graph_builder/rechit_gcn/mul_1/y"
  attr {
    key: "T"
    value {
      type: DT_FLOAT
    }
  }
}
node {
  name: "deep_cluster_gn/graph_builder/rechit_gcn/add"
  op: "AddV2"
  input: "deep_cluster_gn/graph_builder/rechit_gcn/truediv"
  input: "deep_cluster_gn/graph_builder/rechit_gcn/mul_1"
  attr {
    key: "T"
    value {
      type: DT_FLOAT
    }
  }
}
node {
  name: "deep_cluster_gn/graph_builder/rechit_gcn/Softmax"
  op: "Softmax"
  input: "deep_cluster_gn/graph_builder/rechit_gcn/add"
  attr {
    key: "T"
    value {
      type: DT_FLOAT
    }
  }
}
node {
  name: "deep_cluster_gn/graph_builder/rechit_gcn/MatMul_3/ReadVariableOp/resource"
  op: "Const"
  attr {
    key: "dtype"
    value {
      type: DT_FLOAT
    }
  }
  attr {
    key: "value"
    value {
      tensor {
        dtype: DT_FLOAT
        tensor_shape {
          dim {
            size: 25
          }
          dim {
            size: 25
          }
        }
        tensor_content: "4(\222>\"\200\232>\035\250d?\246r\373\275\302}\210=\027N\005=\020C\340\276GkP\277\354\3037=\206\017X\276^\303\315=y\010V\276\003\333\365\276\3559n\276\262\246\242\276\220P\003?Am ?p%\313;\200\232$\277o\252\027\276i\2303\277B\\\t?RF\027?\002h<?H\034S>>\266\224=|\311\345\276\317pI=\267{\244\276\350\334\302\275\355\022o\275\261\016\t\276\"\036\256\275k\252v<\r\344\247>4u\005>\342[\335>\2331\225>\351f!>\302\305\236=tu_\276\320Z\206\276\373y0>\200\257\237;\201v\256>=\034\251=m\213\275\276\351Nd\276$\177\325\275\327\"\224\276+\205c?Vj0\276\225\330B?=\000$\277\313\000\256>\022\253\036\275\337\030>\277\227k$\277\340\256!\275zV\242=|\366\373>eI\277>\240\320\316>\2500#\277\260\023\005?\2130\377>\014\033\334\276R\241Q\276\370\t\000\277FH\265<B\263\001\277\327\n\021>\310rG>\243QC=\273H\331\276G[\265\276\377\t\346>t3,\276\372K\017>\0335\343;2R\003\276\274\2705?\276C\225<Yy\206\275;\240\216=\2562)\276\255{\026\277\2536\361\276\305\tN>\310\361E\275\322\210\261=<\202\227>\227\255O<V\024&=\216t\224=-&\245\274\317 \211\274\243%\220>D\026R\276\030\320`>C\217\360\275\222/S>\367~O\274F9a>\340\034\323\275\001\022\235>\244\234}\275)\342\333\274\370 #\277\032\356\371<\370e\"\276\035\245\034\276\330@\255\275\231\3177>\326\020*>$\312W\276\353\210\234\275\227ES>\022k\217\276\271\344z=;\343\252<\347\321\n\276\244\206\270\274\020\346N>0K\020>\312N\r>\230%0>\201w\227>\016\336\035\276\237\336\244>\205T\221=\225A\226\276^\351D\276k\216W\276\352\343\210\271\264a\343\275\232\003\006\275\016m\351\275\240\204\034\276\223\237\210=\236\247Q>\017\261\300\275\223\245\331\276\321\022\036>6\3566\276b\020J\276\325@\363>\315\034\300>\024\321\037\275r\300~\275\313\251\375\276Z\035\354\275\327\222\r\277\233Z\271=\202\330:\275\200\331R>\0069\200>\002\213\361=%\364\204\275\236Z\367\274z\263\034\275r\227\232=\317\201}>I\247\231\275Y \222\276m\220\270= x\277<$\247q=#?\254=,E\027\276P12?9?:\275\005\223\354\273}\275_\276@\272)>\350,\035=\004#G\276\256/\n=\301n\206\276\036\004\240\2742\305\257\276\341\205\036>\301sl\274}}\301>0w\273<\363\355(<r2\243=\022\345 \276\031\215\021>\2546v\275\202$9>\361\tD=fZ0\275\216\022%\275\010;\214=E\314\270=\351:\263=\371\272\257\275\317UD\274\311\302C>\346[\334<J$]>\311U\200>0|\373>\034\213\026?:\204\n>\310\036\245\276\t0\201\272\220<\374\276\260\264\300\274\272iu\276\325\202\341<\204\350\343\275K\225m\276;\336\r?#H\211>\211\236\007\275\331\302O\275;\334\002\277/UC\274&\376h\276`N\020>\007\240\274\275\303.\014>\244\031\227=D\216\n\276\222\211\274<\n,\363\275\253\211\240\273\337\310\013>\211\277\330\274\223B\023?\350\376.\276\301d\354\276\0064\004=\255\325\203>\317\343\253=\037`!\276\230\255\364\275\300\357%?\240\r\206\276k\3608>\2352\253<@&\002\277B\260t<\343aP?pO^\273D\225\306=+\251[\276<\2171=\2729.\276u\t\360\274\230\355\313\274\306\220{>.\352%>\344\220\022\275k\"\366\275\253\030\204\276\337p\211\276\325\177@=w|\031>\216\345l=\364\236b=\371\242S\275i\273(>s\277#\276\244\025;=\276\036D\274\217\304\330\275.\021\300<\334{\367=\377\tz\275\247\314\024\2759X\203=m\247\306\275\030R\220>\277\3063\276{q\215\276\367\253\247\276a\254\024?\363\017#\276\367\277\253\276\3075v\274\253\267\004>>!t=\274\271Z>\201_.>\'\215\227=\333\265\315\275_5\031>\037t:>.\244\031\274\376g\342\275L\215\221=\007\225\257=\005\014\033?\255\313\215\276;\266\030\275\343|i\275?\272\246\275w\204\250>\335\020O\276\376?l\275G$=>\253\240\032\277\3051\220\275\321z\024\276\354j\356>\257C\263\276\304\007\327>\313\356\323>\000\253\203>\357/\353>4V\021?k\274\330>\\\243\267\276\300\014\r\277\204\261 ?=E\024\277\200\032\350>\234\010\211>R6\257\276\365\'1\277P\336\251\276(\013\264\276\222(\272\276J\261\035>\271I\375\275\n\335b>N\226\352=\260M}>b6s\276\375\033\267=yI\243\276J\003v\274\327\373\223\276gD\n\276\334\036\333=\027\022\303\275\364P\237><M!<\035yO;\335\211\026\275=\022\016\275F\r\032=\214-\177\275\273\326\271<\325\243\211=\231\242\006=8\367e\274\004\013\177=\242}c?T\202\250?\330\250\005>\227I\033\277\370\246j?\303}\265\276\000\033\377\277\244\244g\277 R_\276\345\346?\276;\016\264\276\2605\211\277\350\'\323\275T\t\227\275\360+\005<^\332g?Z\341J?2\315\326\277\'\234\311\275\315\267\275\276|PX?\251\313\226?\021\260\241?XG\255>\303\016\207>$#f\275\302 l>\310\t \276\322\021\363\275\335\335\016>\3363/>\215k\n>UB\356=\275\010\214\274\303&\025\276aW\035\276\342\007\027\276N\316\201>\332r\222=8+{\275\014\360\273\275\252\253\265<\266\n\336<\\\n\243\274\360\371\001\276Uq\221\275\016\340\324\275\277\341\252=\246\020a<>s\200=~\260\230\275\313\217\201\276\310\335R>\326F\205\275\336\337<>\271\360\001\276\353\213\214\275\320\350\270\275A\276\312=\262\202\357\275To\262<\373\016q>\300\2275\276\246q\222>\244n\254\274\352\247\222<z1\304\275\202\235P\275~x\001>\177B\014\275\241h\247\275\226/\377=;F\256\275\256P\367\275\000C\356=\337\t\313\273\344\275\006\276\360\315g=\312\245\323;z\037\277\276\037\344\317=\230BO?\225\235\354>\224\225\'\276(\222F\276R\223\267={\227\236\2750,\374=\027x\322\276j\2542?\360|\001\276\355o\335<\360Ws=\325\257l\276\017\261\217\276 >\201<\271,3\275\365U\202\274Y\257:>\317\352\275=b:\371\275\304\200}>C\021\331>/0\244>a\266.?j!b>\376\252\n?\331\242c>\321\325\202\274z\373\213\276\233\361\364\275\036\252L\276}UN\276\200\327;?\227j&>\335\337G\276\326ac\277\n\017\377>\202\234\214<Kr+\277?n\356\275\326(\215\2760U\022>\220o\307<5\266\335\275d\021\207=\001\010\251\275z<4\273\221\207J=\215\207-\274z\'m=\345&H<N@\316\274(\246V\273\334q\222\274{\221\306\274\267\252\312\275\342\261\335\275\306W.\276\235\216\021\275B\300\325<\377\374\200\275S\200\205=v\365\216<-\2210=\330jB=\005|\304=K\216\303\2731D\017>\036\005\253\275\355\365\335;_\300\203\275!\242L\275\317*b>\351I\352>f\037\220\276\214\331\013>\247-C>\261\303)\275\023`\027\277\262\275\206\275\346yC>m\2271\277\375\274\275\275\016\354n>\352\030\033\276^b\215\276r\312R>\321\330\264\275\240\231\030=A\'\336>\333c\351>6/\361\276\266\351\007?\337\371\034\277p\277?>\366\377\007\276\356\020z>\"I\357>\204\t\303\276\003\360A\276_\342\">\t\177+=\342\272\n\276\354fp\276\360\2029\2758\336\277>C\"\036\277\304\177\035>K\203[?\211\035\020=>9\n\277\350\260N<\255&]\276\2125_\277\332\001\314>o\025\313>w\254\320\276\361<\023?\313L\306>\371\010\214\275\2173\326\275\235qU\276\367Db>\n1\335\276\tN\371=\306\213!?Rv\023?\313\224\320\275\r\004j=Ki\213\275\233\251H\276\\@\036>\255A\316\274\360\3577?]e\314\274\251\315\246\275\247\030\243<\0134\262\275f->\276\264\033)\275\261P+\276\371\344(\276\272\356\227>8T\004\277\n\034>>0\215l\276uo\n?\324\374\275\275aV%\276\314\242S?\242\256\206=\266I\036>\243\206\311>\037]X>\366\225~=\014\260\270\276\232\025(=\345\241\261\276M\000\307\275Ux\210>\211\3144\275.2\221=\026\2171>7\214]=\261\2367\277\344\000\247=\242\231\200>GG\231>\225\326\202>\\]\274\275\252\t\\>\177\3653\276\022Q\375\274\260<\262>j\014\017\277\264\200\241\275hC\363<<\363\035\276\001\010\307=\034jy=\240\2712>\330f\200\276\212V/\276>\335&>\"\022\001\276s\337\342\274/\257\002\276\031\007;\276T\345\212\2741\241\276>75f=\200\266\243>\250\311\370\275"
      }
    }
  }
}
node {
  name: "deep_cluster_gn/graph_builder/rechit_gcn/MatMul_3/ReadVariableOp"
  op: "Identity"
  input: "deep_cluster_gn/graph_builder/rechit_gcn/MatMul_3/ReadVariableOp/resource"
  attr {
    key: "T"
    value {
      type: DT_FLOAT
    }
  }
}
node {
  name: "deep_cluster_gn/graph_builder/rechit_gcn/MatMul_3"
  op: "BatchMatMulV2"
  input: "deep_cluster_gn/graph_builder/rechit_gcn/GHC_rechits/add_2"
  input: "deep_cluster_gn/graph_builder/rechit_gcn/MatMul_3/ReadVariableOp"
  attr {
    key: "T"
    value {
      type: DT_FLOAT
    }
  }
  attr {
    key: "adj_x"
    value {
      b: false
    }
  }
  attr {
    key: "adj_y"
    value {
      b: false
    }
  }
}
node {
  name: "deep_cluster_gn/graph_builder/rechit_gcn/MatMul_5"
  op: "BatchMatMulV2"
  input: "deep_cluster_gn/graph_builder/rechit_gcn/Softmax"
  input: "deep_cluster_gn/graph_builder/rechit_gcn/MatMul_3"
  attr {
    key: "T"
    value {
      type: DT_FLOAT
    }
  }
  attr {
    key: "adj_x"
    value {
      b: false
    }
  }
  attr {
    key: "adj_y"
    value {
      b: false
    }
  }
}
node {
  name: "deep_cluster_gn/graph_builder/rechit_gcn/dropout_1/Identity"
  op: "Identity"
  input: "deep_cluster_gn/graph_builder/rechit_gcn/MatMul_5"
  attr {
    key: "T"
    value {
      type: DT_FLOAT
    }
  }
}
node {
  name: "deep_cluster_gn/graph_builder/rechit_gcn/sa_norm_rechits/Shape"
  op: "Shape"
  input: "deep_cluster_gn/graph_builder/rechit_gcn/dropout_1/Identity"
  attr {
    key: "T"
    value {
      type: DT_FLOAT
    }
  }
  attr {
    key: "out_type"
    value {
      type: DT_INT32
    }
  }
}
node {
  name: "deep_cluster_gn/graph_builder/rechit_gcn/sa_norm_rechits/strided_slice/stack"
  op: "Const"
  attr {
    key: "dtype"
    value {
      type: DT_INT32
    }
  }
  attr {
    key: "value"
    value {
      tensor {
        dtype: DT_INT32
        tensor_shape {
          dim {
            size: 1
          }
        }
        int_val: 0
      }
    }
  }
}
node {
  name: "deep_cluster_gn/graph_builder/rechit_gcn/sa_norm_rechits/strided_slice/stack_1"
  op: "Const"
  attr {
    key: "dtype"
    value {
      type: DT_INT32
    }
  }
  attr {
    key: "value"
    value {
      tensor {
        dtype: DT_INT32
        tensor_shape {
          dim {
            size: 1
          }
        }
        int_val: 1
      }
    }
  }
}
node {
  name: "deep_cluster_gn/graph_builder/rechit_gcn/sa_norm_rechits/strided_slice/stack_2"
  op: "Const"
  attr {
    key: "dtype"
    value {
      type: DT_INT32
    }
  }
  attr {
    key: "value"
    value {
      tensor {
        dtype: DT_INT32
        tensor_shape {
          dim {
            size: 1
          }
        }
        int_val: 1
      }
    }
  }
}
node {
  name: "deep_cluster_gn/graph_builder/rechit_gcn/sa_norm_rechits/strided_slice"
  op: "StridedSlice"
  input: "deep_cluster_gn/graph_builder/rechit_gcn/sa_norm_rechits/Shape"
  input: "deep_cluster_gn/graph_builder/rechit_gcn/sa_norm_rechits/strided_slice/stack"
  input: "deep_cluster_gn/graph_builder/rechit_gcn/sa_norm_rechits/strided_slice/stack_1"
  input: "deep_cluster_gn/graph_builder/rechit_gcn/sa_norm_rechits/strided_slice/stack_2"
  attr {
    key: "Index"
    value {
      type: DT_INT32
    }
  }
  attr {
    key: "T"
    value {
      type: DT_INT32
    }
  }
  attr {
    key: "begin_mask"
    value {
      i: 0
    }
  }
  attr {
    key: "ellipsis_mask"
    value {
      i: 0
    }
  }
  attr {
    key: "end_mask"
    value {
      i: 0
    }
  }
  attr {
    key: "new_axis_mask"
    value {
      i: 0
    }
  }
  attr {
    key: "shrink_axis_mask"
    value {
      i: 1
    }
  }
}
node {
  name: "deep_cluster_gn/graph_builder/rechit_gcn/sa_norm_rechits/mul"
  op: "Mul"
  input: "deep_cluster_gn/graph_builder/rechit_gcn/sa_norm_rechits/mul/x"
  input: "deep_cluster_gn/graph_builder/rechit_gcn/sa_norm_rechits/strided_slice"
  attr {
    key: "T"
    value {
      type: DT_INT32
    }
  }
}
node {
  name: "deep_cluster_gn/graph_builder/rechit_gcn/sa_norm_rechits/strided_slice_1/stack"
  op: "Const"
  attr {
    key: "dtype"
    value {
      type: DT_INT32
    }
  }
  attr {
    key: "value"
    value {
      tensor {
        dtype: DT_INT32
        tensor_shape {
          dim {
            size: 1
          }
        }
        int_val: 1
      }
    }
  }
}
node {
  name: "deep_cluster_gn/graph_builder/rechit_gcn/sa_norm_rechits/strided_slice_1/stack_1"
  op: "Const"
  attr {
    key: "dtype"
    value {
      type: DT_INT32
    }
  }
  attr {
    key: "value"
    value {
      tensor {
        dtype: DT_INT32
        tensor_shape {
          dim {
            size: 1
          }
        }
        int_val: 2
      }
    }
  }
}
node {
  name: "deep_cluster_gn/graph_builder/rechit_gcn/sa_norm_rechits/strided_slice_1/stack_2"
  op: "Const"
  attr {
    key: "dtype"
    value {
      type: DT_INT32
    }
  }
  attr {
    key: "value"
    value {
      tensor {
        dtype: DT_INT32
        tensor_shape {
          dim {
            size: 1
          }
        }
        int_val: 1
      }
    }
  }
}
node {
  name: "deep_cluster_gn/graph_builder/rechit_gcn/sa_norm_rechits/strided_slice_1"
  op: "StridedSlice"
  input: "deep_cluster_gn/graph_builder/rechit_gcn/sa_norm_rechits/Shape"
  input: "deep_cluster_gn/graph_builder/rechit_gcn/sa_norm_rechits/strided_slice_1/stack"
  input: "deep_cluster_gn/graph_builder/rechit_gcn/sa_norm_rechits/strided_slice_1/stack_1"
  input: "deep_cluster_gn/graph_builder/rechit_gcn/sa_norm_rechits/strided_slice_1/stack_2"
  attr {
    key: "Index"
    value {
      type: DT_INT32
    }
  }
  attr {
    key: "T"
    value {
      type: DT_INT32
    }
  }
  attr {
    key: "begin_mask"
    value {
      i: 0
    }
  }
  attr {
    key: "ellipsis_mask"
    value {
      i: 0
    }
  }
  attr {
    key: "end_mask"
    value {
      i: 0
    }
  }
  attr {
    key: "new_axis_mask"
    value {
      i: 0
    }
  }
  attr {
    key: "shrink_axis_mask"
    value {
      i: 1
    }
  }
}
node {
  name: "deep_cluster_gn/graph_builder/rechit_gcn/sa_norm_rechits/mul_1"
  op: "Mul"
  input: "deep_cluster_gn/graph_builder/rechit_gcn/sa_norm_rechits/mul"
  input: "deep_cluster_gn/graph_builder/rechit_gcn/sa_norm_rechits/strided_slice_1"
  attr {
    key: "T"
    value {
      type: DT_INT32
    }
  }
}
node {
  name: "deep_cluster_gn/graph_builder/rechit_gcn/sa_norm_rechits/strided_slice_2/stack"
  op: "Const"
  attr {
    key: "dtype"
    value {
      type: DT_INT32
    }
  }
  attr {
    key: "value"
    value {
      tensor {
        dtype: DT_INT32
        tensor_shape {
          dim {
            size: 1
          }
        }
        int_val: 2
      }
    }
  }
}
node {
  name: "deep_cluster_gn/graph_builder/rechit_gcn/sa_norm_rechits/strided_slice_2/stack_1"
  op: "Const"
  attr {
    key: "dtype"
    value {
      type: DT_INT32
    }
  }
  attr {
    key: "value"
    value {
      tensor {
        dtype: DT_INT32
        tensor_shape {
          dim {
            size: 1
          }
        }
        int_val: 3
      }
    }
  }
}
node {
  name: "deep_cluster_gn/graph_builder/rechit_gcn/sa_norm_rechits/strided_slice_2/stack_2"
  op: "Const"
  attr {
    key: "dtype"
    value {
      type: DT_INT32
    }
  }
  attr {
    key: "value"
    value {
      tensor {
        dtype: DT_INT32
        tensor_shape {
          dim {
            size: 1
          }
        }
        int_val: 1
      }
    }
  }
}
node {
  name: "deep_cluster_gn/graph_builder/rechit_gcn/sa_norm_rechits/strided_slice_2"
  op: "StridedSlice"
  input: "deep_cluster_gn/graph_builder/rechit_gcn/sa_norm_rechits/Shape"
  input: "deep_cluster_gn/graph_builder/rechit_gcn/sa_norm_rechits/strided_slice_2/stack"
  input: "deep_cluster_gn/graph_builder/rechit_gcn/sa_norm_rechits/strided_slice_2/stack_1"
  input: "deep_cluster_gn/graph_builder/rechit_gcn/sa_norm_rechits/strided_slice_2/stack_2"
  attr {
    key: "Index"
    value {
      type: DT_INT32
    }
  }
  attr {
    key: "T"
    value {
      type: DT_INT32
    }
  }
  attr {
    key: "begin_mask"
    value {
      i: 0
    }
  }
  attr {
    key: "ellipsis_mask"
    value {
      i: 0
    }
  }
  attr {
    key: "end_mask"
    value {
      i: 0
    }
  }
  attr {
    key: "new_axis_mask"
    value {
      i: 0
    }
  }
  attr {
    key: "shrink_axis_mask"
    value {
      i: 1
    }
  }
}
node {
  name: "deep_cluster_gn/graph_builder/rechit_gcn/sa_norm_rechits/mul_2"
  op: "Mul"
  input: "deep_cluster_gn/graph_builder/rechit_gcn/sa_norm_rechits/mul_1"
  input: "deep_cluster_gn/graph_builder/rechit_gcn/sa_norm_rechits/strided_slice_2"
  attr {
    key: "T"
    value {
      type: DT_INT32
    }
  }
}
node {
  name: "deep_cluster_gn/graph_builder/rechit_gcn/sa_norm_rechits/mul_3/x"
  op: "Const"
  attr {
    key: "dtype"
    value {
      type: DT_INT32
    }
  }
  attr {
    key: "value"
    value {
      tensor {
        dtype: DT_INT32
        tensor_shape {
        }
        int_val: 1
      }
    }
  }
}
node {
  name: "deep_cluster_gn/graph_builder/rechit_gcn/sa_norm_rechits/strided_slice_3/stack"
  op: "Const"
  attr {
    key: "dtype"
    value {
      type: DT_INT32
    }
  }
  attr {
    key: "value"
    value {
      tensor {
        dtype: DT_INT32
        tensor_shape {
          dim {
            size: 1
          }
        }
        int_val: 3
      }
    }
  }
}
node {
  name: "deep_cluster_gn/graph_builder/rechit_gcn/sa_norm_rechits/strided_slice_3/stack_1"
  op: "Const"
  attr {
    key: "dtype"
    value {
      type: DT_INT32
    }
  }
  attr {
    key: "value"
    value {
      tensor {
        dtype: DT_INT32
        tensor_shape {
          dim {
            size: 1
          }
        }
        int_val: 4
      }
    }
  }
}
node {
  name: "deep_cluster_gn/graph_builder/rechit_gcn/sa_norm_rechits/strided_slice_3/stack_2"
  op: "Const"
  attr {
    key: "dtype"
    value {
      type: DT_INT32
    }
  }
  attr {
    key: "value"
    value {
      tensor {
        dtype: DT_INT32
        tensor_shape {
          dim {
            size: 1
          }
        }
        int_val: 1
      }
    }
  }
}
node {
  name: "deep_cluster_gn/graph_builder/rechit_gcn/sa_norm_rechits/strided_slice_3"
  op: "StridedSlice"
  input: "deep_cluster_gn/graph_builder/rechit_gcn/sa_norm_rechits/Shape"
  input: "deep_cluster_gn/graph_builder/rechit_gcn/sa_norm_rechits/strided_slice_3/stack"
  input: "deep_cluster_gn/graph_builder/rechit_gcn/sa_norm_rechits/strided_slice_3/stack_1"
  input: "deep_cluster_gn/graph_builder/rechit_gcn/sa_norm_rechits/strided_slice_3/stack_2"
  attr {
    key: "Index"
    value {
      type: DT_INT32
    }
  }
  attr {
    key: "T"
    value {
      type: DT_INT32
    }
  }
  attr {
    key: "begin_mask"
    value {
      i: 0
    }
  }
  attr {
    key: "ellipsis_mask"
    value {
      i: 0
    }
  }
  attr {
    key: "end_mask"
    value {
      i: 0
    }
  }
  attr {
    key: "new_axis_mask"
    value {
      i: 0
    }
  }
  attr {
    key: "shrink_axis_mask"
    value {
      i: 1
    }
  }
}
node {
  name: "deep_cluster_gn/graph_builder/rechit_gcn/sa_norm_rechits/mul_3"
  op: "Mul"
  input: "deep_cluster_gn/graph_builder/rechit_gcn/sa_norm_rechits/mul_3/x"
  input: "deep_cluster_gn/graph_builder/rechit_gcn/sa_norm_rechits/strided_slice_3"
  attr {
    key: "T"
    value {
      type: DT_INT32
    }
  }
}
node {
  name: "deep_cluster_gn/graph_builder/rechit_gcn/sa_norm_rechits/Reshape/shape/3"
  op: "Const"
  attr {
    key: "dtype"
    value {
      type: DT_INT32
    }
  }
  attr {
    key: "value"
    value {
      tensor {
        dtype: DT_INT32
        tensor_shape {
        }
        int_val: 1
      }
    }
  }
}
node {
  name: "deep_cluster_gn/graph_builder/rechit_gcn/sa_norm_rechits/Reshape/shape"
  op: "Pack"
  input: "deep_cluster_gn/graph_builder/rechit_gcn/sa_norm_rechits/Reshape/shape/0"
  input: "deep_cluster_gn/graph_builder/rechit_gcn/sa_norm_rechits/mul_2"
  input: "deep_cluster_gn/graph_builder/rechit_gcn/sa_norm_rechits/mul_3"
  input: "deep_cluster_gn/graph_builder/rechit_gcn/sa_norm_rechits/Reshape/shape/3"
  attr {
    key: "N"
    value {
      i: 4
    }
  }
  attr {
    key: "T"
    value {
      type: DT_INT32
    }
  }
  attr {
    key: "axis"
    value {
      i: 0
    }
  }
}
node {
  name: "deep_cluster_gn/graph_builder/rechit_gcn/sa_norm_rechits/Reshape"
  op: "Reshape"
  input: "deep_cluster_gn/graph_builder/rechit_gcn/dropout_1/Identity"
  input: "deep_cluster_gn/graph_builder/rechit_gcn/sa_norm_rechits/Reshape/shape"
  attr {
    key: "T"
    value {
      type: DT_FLOAT
    }
  }
  attr {
    key: "Tshape"
    value {
      type: DT_INT32
    }
  }
}
node {
  name: "deep_cluster_gn/graph_builder/rechit_gcn/sa_norm_rechits/Fill/dims"
  op: "Pack"
  input: "deep_cluster_gn/graph_builder/rechit_gcn/sa_norm_rechits/mul_2"
  attr {
    key: "N"
    value {
      i: 1
    }
  }
  attr {
    key: "T"
    value {
      type: DT_INT32
    }
  }
  attr {
    key: "axis"
    value {
      i: 0
    }
  }
}
node {
  name: "deep_cluster_gn/graph_builder/rechit_gcn/sa_norm_rechits/Const"
  op: "Const"
  attr {
    key: "dtype"
    value {
      type: DT_FLOAT
    }
  }
  attr {
    key: "value"
    value {
      tensor {
        dtype: DT_FLOAT
        tensor_shape {
        }
        float_val: 1.0
      }
    }
  }
}
node {
  name: "deep_cluster_gn/graph_builder/rechit_gcn/sa_norm_rechits/Fill"
  op: "Fill"
  input: "deep_cluster_gn/graph_builder/rechit_gcn/sa_norm_rechits/Fill/dims"
  input: "deep_cluster_gn/graph_builder/rechit_gcn/sa_norm_rechits/Const"
  attr {
    key: "T"
    value {
      type: DT_FLOAT
    }
  }
  attr {
    key: "index_type"
    value {
      type: DT_INT32
    }
  }
}
node {
  name: "deep_cluster_gn/graph_builder/rechit_gcn/sa_norm_rechits/Fill_1/dims"
  op: "Pack"
  input: "deep_cluster_gn/graph_builder/rechit_gcn/sa_norm_rechits/mul_2"
  attr {
    key: "N"
    value {
      i: 1
    }
  }
  attr {
    key: "T"
    value {
      type: DT_INT32
    }
  }
  attr {
    key: "axis"
    value {
      i: 0
    }
  }
}
node {
  name: "deep_cluster_gn/graph_builder/rechit_gcn/sa_norm_rechits/Const_1"
  op: "Const"
  attr {
    key: "dtype"
    value {
      type: DT_FLOAT
    }
  }
  attr {
    key: "value"
    value {
      tensor {
        dtype: DT_FLOAT
        tensor_shape {
        }
        float_val: 0.0
      }
    }
  }
}
node {
  name: "deep_cluster_gn/graph_builder/rechit_gcn/sa_norm_rechits/Fill_1"
  op: "Fill"
  input: "deep_cluster_gn/graph_builder/rechit_gcn/sa_norm_rechits/Fill_1/dims"
  input: "deep_cluster_gn/graph_builder/rechit_gcn/sa_norm_rechits/Const_1"
  attr {
    key: "T"
    value {
      type: DT_FLOAT
    }
  }
  attr {
    key: "index_type"
    value {
      type: DT_INT32
    }
  }
}
node {
  name: "deep_cluster_gn/graph_builder/rechit_gcn/sa_norm_rechits/Const_2"
  op: "Const"
  attr {
    key: "dtype"
    value {
      type: DT_FLOAT
    }
  }
  attr {
    key: "value"
    value {
      tensor {
        dtype: DT_FLOAT
        tensor_shape {
          dim {
          }
        }
      }
    }
  }
}
node {
  name: "deep_cluster_gn/graph_builder/rechit_gcn/sa_norm_rechits/Const_3"
  op: "Const"
  attr {
    key: "dtype"
    value {
      type: DT_FLOAT
    }
  }
  attr {
    key: "value"
    value {
      tensor {
        dtype: DT_FLOAT
        tensor_shape {
          dim {
          }
        }
      }
    }
  }
}
node {
  name: "deep_cluster_gn/graph_builder/rechit_gcn/sa_norm_rechits/FusedBatchNormV3"
  op: "FusedBatchNormV3"
  input: "deep_cluster_gn/graph_builder/rechit_gcn/sa_norm_rechits/Reshape"
  input: "deep_cluster_gn/graph_builder/rechit_gcn/sa_norm_rechits/Fill"
  input: "deep_cluster_gn/graph_builder/rechit_gcn/sa_norm_rechits/Fill_1"
  input: "deep_cluster_gn/graph_builder/rechit_gcn/sa_norm_rechits/Const_2"
  input: "deep_cluster_gn/graph_builder/rechit_gcn/sa_norm_rechits/Const_3"
  attr {
    key: "T"
    value {
      type: DT_FLOAT
    }
  }
  attr {
    key: "U"
    value {
      type: DT_FLOAT
    }
  }
  attr {
    key: "data_format"
    value {
      s: "NCHW"
    }
  }
  attr {
    key: "epsilon"
    value {
      f: 0.0010000000474974513
    }
  }
  attr {
    key: "exponential_avg_factor"
    value {
      f: 1.0
    }
  }
  attr {
    key: "is_training"
    value {
      b: true
    }
  }
}
node {
  name: "deep_cluster_gn/graph_builder/rechit_gcn/sa_norm_rechits/Reshape_1"
  op: "Reshape"
  input: "deep_cluster_gn/graph_builder/rechit_gcn/sa_norm_rechits/FusedBatchNormV3"
  input: "deep_cluster_gn/graph_builder/rechit_gcn/sa_norm_rechits/Shape"
  attr {
    key: "T"
    value {
      type: DT_FLOAT
    }
  }
  attr {
    key: "Tshape"
    value {
      type: DT_INT32
    }
  }
}
node {
  name: "deep_cluster_gn/graph_builder/rechit_gcn/sa_norm_rechits/mul_4/ReadVariableOp/resource"
  op: "Const"
  attr {
    key: "dtype"
    value {
      type: DT_FLOAT
    }
  }
  attr {
    key: "value"
    value {
      tensor {
        dtype: DT_FLOAT
        tensor_shape {
          dim {
            size: 25
          }
        }
        tensor_content: "jX\306?\201\026\362?|\226\007@\314\271\035@%\334\276?\013\255\340?/I\312?\372\204\010@\255<\273?\2425\273?+\320\264?\267v\312?\374\026\374?\266,\312?\221\033\316?#\361\021@\262~\302?\271(\325?St\327?\370\025\304?p\266i@<\232\006@\250\004\344?\271\314\251?\244%\243?"
      }
    }
  }
}
node {
  name: "deep_cluster_gn/graph_builder/rechit_gcn/sa_norm_rechits/mul_4/ReadVariableOp"
  op: "Identity"
  input: "deep_cluster_gn/graph_builder/rechit_gcn/sa_norm_rechits/mul_4/ReadVariableOp/resource"
  attr {
    key: "T"
    value {
      type: DT_FLOAT
    }
  }
}
node {
  name: "deep_cluster_gn/graph_builder/rechit_gcn/sa_norm_rechits/mul_4"
  op: "Mul"
  input: "deep_cluster_gn/graph_builder/rechit_gcn/sa_norm_rechits/Reshape_1"
  input: "deep_cluster_gn/graph_builder/rechit_gcn/sa_norm_rechits/mul_4/ReadVariableOp"
  attr {
    key: "T"
    value {
      type: DT_FLOAT
    }
  }
}
node {
  name: "deep_cluster_gn/graph_builder/rechit_gcn/sa_norm_rechits/add/ReadVariableOp/resource"
  op: "Const"
  attr {
    key: "dtype"
    value {
      type: DT_FLOAT
    }
  }
  attr {
    key: "value"
    value {
      tensor {
        dtype: DT_FLOAT
        tensor_shape {
          dim {
            size: 25
          }
        }
        tensor_content: "\200\t\026\277\376\034\325=\026\235h\277\2110\234?\276\322\004?2\020\023>\325\320\035>\340kS>\251\223B\276il\205\275\n\355\363\275J\245\320\275\313\007;\276\217\251r\275\017\n1>*{&\277E\321u=5]\235\276\311\273\323>Z>p\274s\252\222?!\220a\276\030\336\324\2756jZ\276\232\241\200<"
      }
    }
  }
}
node {
  name: "deep_cluster_gn/graph_builder/rechit_gcn/sa_norm_rechits/add/ReadVariableOp"
  op: "Identity"
  input: "deep_cluster_gn/graph_builder/rechit_gcn/sa_norm_rechits/add/ReadVariableOp/resource"
  attr {
    key: "T"
    value {
      type: DT_FLOAT
    }
  }
}
node {
  name: "deep_cluster_gn/graph_builder/rechit_gcn/sa_norm_rechits/add"
  op: "AddV2"
  input: "deep_cluster_gn/graph_builder/rechit_gcn/sa_norm_rechits/mul_4"
  input: "deep_cluster_gn/graph_builder/rechit_gcn/sa_norm_rechits/add/ReadVariableOp"
  attr {
    key: "T"
    value {
      type: DT_FLOAT
    }
  }
}
node {
  name: "deep_cluster_gn/graph_builder/rechit_gcn/strided_slice_5/stack"
  op: "Const"
  attr {
    key: "dtype"
    value {
      type: DT_INT32
    }
  }
  attr {
    key: "value"
    value {
      tensor {
        dtype: DT_INT32
        tensor_shape {
          dim {
            size: 4
          }
        }
        tensor_content: "\000\000\000\000\000\000\000\000\000\000\000\000\000\000\000\000"
      }
    }
  }
}
node {
  name: "deep_cluster_gn/graph_builder/rechit_gcn/strided_slice_5/stack_1"
  op: "Const"
  attr {
    key: "dtype"
    value {
      type: DT_INT32
    }
  }
  attr {
    key: "value"
    value {
      tensor {
        dtype: DT_INT32
        tensor_shape {
          dim {
            size: 4
          }
        }
        tensor_content: "\000\000\000\000\000\000\000\000\000\000\000\000\000\000\000\000"
      }
    }
  }
}
node {
  name: "deep_cluster_gn/graph_builder/rechit_gcn/strided_slice_5/stack_2"
  op: "Const"
  attr {
    key: "dtype"
    value {
      type: DT_INT32
    }
  }
  attr {
    key: "value"
    value {
      tensor {
        dtype: DT_INT32
        tensor_shape {
          dim {
            size: 4
          }
        }
        tensor_content: "\001\000\000\000\001\000\000\000\001\000\000\000\001\000\000\000"
      }
    }
  }
}
node {
  name: "deep_cluster_gn/graph_builder/rechit_gcn/strided_slice_5"
  op: "StridedSlice"
  input: "deep_cluster_gn/graph_builder/Cast"
  input: "deep_cluster_gn/graph_builder/rechit_gcn/strided_slice_5/stack"
  input: "deep_cluster_gn/graph_builder/rechit_gcn/strided_slice_5/stack_1"
  input: "deep_cluster_gn/graph_builder/rechit_gcn/strided_slice_5/stack_2"
  attr {
    key: "Index"
    value {
      type: DT_INT32
    }
  }
  attr {
    key: "T"
    value {
      type: DT_FLOAT
    }
  }
  attr {
    key: "begin_mask"
    value {
      i: 7
    }
  }
  attr {
    key: "ellipsis_mask"
    value {
      i: 0
    }
  }
  attr {
    key: "end_mask"
    value {
      i: 7
    }
  }
  attr {
    key: "new_axis_mask"
    value {
      i: 8
    }
  }
  attr {
    key: "shrink_axis_mask"
    value {
      i: 0
    }
  }
}
node {
  name: "deep_cluster_gn/graph_builder/rechit_gcn/mul_2"
  op: "Mul"
  input: "deep_cluster_gn/graph_builder/rechit_gcn/sa_norm_rechits/add"
  input: "deep_cluster_gn/graph_builder/rechit_gcn/strided_slice_5"
  attr {
    key: "T"
    value {
      type: DT_FLOAT
    }
  }
}
node {
  name: "deep_cluster_gn/graph_builder/rechit_gcn/dense_rechits/dense_rechits_0/conv1d/ExpandDims/dim"
  op: "Const"
  attr {
    key: "dtype"
    value {
      type: DT_INT32
    }
  }
  attr {
    key: "value"
    value {
      tensor {
        dtype: DT_INT32
        tensor_shape {
        }
        int_val: -3
      }
    }
  }
}
node {
  name: "deep_cluster_gn/graph_builder/rechit_gcn/dense_rechits/dense_rechits_0/conv1d/ExpandDims"
  op: "ExpandDims"
  input: "deep_cluster_gn/graph_builder/rechit_gcn/mul_2"
  input: "deep_cluster_gn/graph_builder/rechit_gcn/dense_rechits/dense_rechits_0/conv1d/ExpandDims/dim"
  attr {
    key: "T"
    value {
      type: DT_FLOAT
    }
  }
  attr {
    key: "Tdim"
    value {
      type: DT_INT32
    }
  }
}
node {
  name: "deep_cluster_gn/graph_builder/rechit_gcn/dense_rechits/dense_rechits_0/conv1d/Reshape/shape"
  op: "Const"
  attr {
    key: "dtype"
    value {
      type: DT_INT32
    }
  }
  attr {
    key: "value"
    value {
      tensor {
        dtype: DT_INT32
        tensor_shape {
          dim {
            size: 4
          }
        }
        tensor_content: "\377\377\377\377\001\000\000\000(\000\000\000\031\000\000\000"
      }
    }
  }
}
node {
  name: "deep_cluster_gn/graph_builder/rechit_gcn/dense_rechits/dense_rechits_0/conv1d/Reshape"
  op: "Reshape"
  input: "deep_cluster_gn/graph_builder/rechit_gcn/dense_rechits/dense_rechits_0/conv1d/ExpandDims"
  input: "deep_cluster_gn/graph_builder/rechit_gcn/dense_rechits/dense_rechits_0/conv1d/Reshape/shape"
  attr {
    key: "T"
    value {
      type: DT_FLOAT
    }
  }
  attr {
    key: "Tshape"
    value {
      type: DT_INT32
    }
  }
}
node {
  name: "deep_cluster_gn/graph_builder/rechit_gcn/dense_rechits/dense_rechits_0/conv1d/ExpandDims_1/ReadVariableOp/resource"
  op: "Const"
  attr {
    key: "dtype"
    value {
      type: DT_FLOAT
    }
  }
  attr {
    key: "value"
    value {
      tensor {
        dtype: DT_FLOAT
        tensor_shape {
          dim {
            size: 1
          }
          dim {
            size: 25
          }
          dim {
            size: 25
          }
        }
